{
  "version": "1.0",
  "truncation": null,
  "padding": null,
  "added_tokens": [
    {
      "id": 0,
      "content": "<bos>",
      "single_word": false,
      "lstrip": false,
      "rstrip": false,
      "normalized": false,
      "special": true
    },
    {
      "id": 1,
      "content": "<eos>",
      "single_word": false,
      "lstrip": false,
      "rstrip": false,
      "normalized": false,
      "special": true
    },
    {
      "id": 2,
      "content": "<pad>",
      "single_word": false,
      "lstrip": false,
      "rstrip": false,
      "normalized": false,
      "special": true
    },
    {
      "id": 3,
      "content": "<unk>",
      "single_word": false,
      "lstrip": false,
      "rstrip": false,
      "normalized": false,
      "special": true
    },
    {
      "id": 4096,
      "content": "<u>",
      "single_word": false,
      "lstrip": false,
      "rstrip": false,
      "normalized": false,
      "special": true
    },
    {
      "id": 4097,
      "content": "<a>",
      "single_word": false,
      "lstrip": false,
      "rstrip": false,
      "normalized": false,
      "special": true
    },
    {
      "id": 4098,
      "content": "<long>",
      "single_word": false,
      "lstrip": false,
      "rstrip": false,
      "normalized": false,
      "special": true
    }
  ],
  "normalizer": null,
  "pre_tokenizer": {
    "type": "ByteLevel",
    "add_prefix_space": false,
    "trim_offsets": true,
    "use_regex": true
  },
  "post_processor": {
    "type": "TemplateProcessing",
    "single": [
      {
        "SpecialToken": {
          "id": "<bos>",
          "type_id": 0
        }
      },
      {
        "Sequence": {
          "id": "A",
          "type_id": 0
        }
      },
      {
        "SpecialToken": {
          "id": "<eos>",
          "type_id": 0
        }
      }
    ],
    "pair": [
      {
        "Sequence": {
          "id": "A",
          "type_id": 0
        }
      },
      {
        "Sequence": {
          "id": "B",
          "type_id": 1
        }
      }
    ],
    "special_tokens": {
      "<bos>": {
        "id": "<bos>",
        "ids": [
          0
        ],
        "tokens": [
          "<bos>"
        ]
      },
      "<eos>": {
        "id": "<eos>",
        "ids": [
          1
        ],
        "tokens": [
          "<eos>"
        ]
      }
    }
  },
  "decoder": {
    "type": "ByteLevel",
    "add_prefix_space": true,
    "trim_offsets": true,
    "use_regex": true
  },
  "model": {
    "type": "BPE",
    "dropout": null,
    "unk_token": "<unk>",
    "continuing_subword_prefix": null,
    "end_of_word_suffix": null,
    "fuse_unk": false,
    "byte_fallback": false,
    "ignore_merges": false,
    "vocab": {
      "<bos>": 0,
      "<eos>": 1,
      "<pad>": 2,
      "<unk>": 3,
      "!": 4,
      "\"": 5,
      "#": 6,
      "$": 7,
      "%": 8,
      "&": 9,
      "'": 10,
      "(": 11,
      ")": 12,
      "*": 13,
      "+": 14,
      ",": 15,
      "-": 16,
      ".": 17,
      "/": 18,
      "0": 19,
      "1": 20,
      "2": 21,
      "3": 22,
      "4": 23,
      "5": 24,
      "6": 25,
      "7": 26,
      "8": 27,
      "9": 28,
      ":": 29,
      ";": 30,
      "<": 31,
      "=": 32,
      ">": 33,
      "?": 34,
      "@": 35,
      "A": 36,
      "B": 37,
      "C": 38,
      "D": 39,
      "E": 40,
      "F": 41,
      "G": 42,
      "H": 43,
      "I": 44,
      "J": 45,
      "K": 46,
      "L": 47,
      "M": 48,
      "N": 49,
      "O": 50,
      "P": 51,
      "Q": 52,
      "R": 53,
      "S": 54,
      "T": 55,
      "U": 56,
      "V": 57,
      "W": 58,
      "X": 59,
      "Y": 60,
      "Z": 61,
      "[": 62,
      "\\": 63,
      "]": 64,
      "^": 65,
      "_": 66,
      "`": 67,
      "a": 68,
      "b": 69,
      "c": 70,
      "d": 71,
      "e": 72,
      "f": 73,
      "g": 74,
      "h": 75,
      "i": 76,
      "j": 77,
      "k": 78,
      "l": 79,
      "m": 80,
      "n": 81,
      "o": 82,
      "p": 83,
      "q": 84,
      "r": 85,
      "s": 86,
      "t": 87,
      "u": 88,
      "v": 89,
      "w": 90,
      "x": 91,
      "y": 92,
      "z": 93,
      "|": 94,
      "}": 95,
      "~": 96,
      "¡": 97,
      "¢": 98,
      "£": 99,
      "¤": 100,
      "¥": 101,
      "¦": 102,
      "§": 103,
      "¨": 104,
      "©": 105,
      "ª": 106,
      "«": 107,
      "¬": 108,
      "®": 109,
      "¯": 110,
      "°": 111,
      "±": 112,
      "²": 113,
      "³": 114,
      "´": 115,
      "µ": 116,
      "¶": 117,
      "·": 118,
      "¸": 119,
      "¹": 120,
      "º": 121,
      "»": 122,
      "¼": 123,
      "½": 124,
      "¾": 125,
      "¿": 126,
      "Â": 127,
      "Ã": 128,
      "Ä": 129,
      "Å": 130,
      "Æ": 131,
      "Ç": 132,
      "È": 133,
      "É": 134,
      "Ê": 135,
      "Ë": 136,
      "Ì": 137,
      "Í": 138,
      "Î": 139,
      "Ï": 140,
      "Ð": 141,
      "Ñ": 142,
      "Ò": 143,
      "Ó": 144,
      "Ô": 145,
      "Õ": 146,
      "Ö": 147,
      "×": 148,
      "Ø": 149,
      "Ù": 150,
      "Ú": 151,
      "Û": 152,
      "Ü": 153,
      "Ý": 154,
      "Þ": 155,
      "à": 156,
      "á": 157,
      "â": 158,
      "ã": 159,
      "ä": 160,
      "å": 161,
      "æ": 162,
      "ç": 163,
      "è": 164,
      "é": 165,
      "ê": 166,
      "ë": 167,
      "ì": 168,
      "í": 169,
      "ï": 170,
      "ð": 171,
      "Ċ": 172,
      "Ġ": 173,
      "Ģ": 174,
      "ģ": 175,
      "Ĥ": 176,
      "ĥ": 177,
      "Ħ": 178,
      "ħ": 179,
      "Ĩ": 180,
      "ĩ": 181,
      "Ī": 182,
      "ī": 183,
      "Ĭ": 184,
      "ĭ": 185,
      "Į": 186,
      "į": 187,
      "İ": 188,
      "ı": 189,
      "Ĳ": 190,
      "ĳ": 191,
      "Ĵ": 192,
      "ĵ": 193,
      "Ķ": 194,
      "ķ": 195,
      "ĸ": 196,
      "Ĺ": 197,
      "ĺ": 198,
      "Ļ": 199,
      "ļ": 200,
      "Ľ": 201,
      "ľ": 202,
      "Ŀ": 203,
      "ŀ": 204,
      "Ł": 205,
      "ł": 206,
      "Ń": 207,
      "Ġt": 208,
      "Ġa": 209,
      "he": 210,
      "in": 211,
      "re": 212,
      "Ġthe": 213,
      "on": 214,
      "er": 215,
      "Ġs": 216,
      "at": 217,
      "Ġo": 218,
      "Ġc": 219,
      "en": 220,
      "es": 221,
      "Ġw": 222,
      "is": 223,
      "nd": 224,
      "it": 225,
      "or": 226,
      "Ġp": 227,
      "al": 228,
      "Ġb": 229,
      "an": 230,
      "Ġf": 231,
      "ing": 232,
      "ed": 233,
      "Ġof": 234,
      "ou": 235,
      "Ġin": 236,
      "ar": 237,
      "Ġm": 238,
      "Ġto": 239,
      "Ġand": 240,
      "ic": 241,
      "Ġd": 242,
      "ion": 243,
      "le": 244,
      "ro": 245,
      "as": 246,
      "Ġh": 247,
      "ent": 248,
      "Ġth": 249,
      "ct": 250,
      "Ġe": 251,
      "il": 252,
      "Ġre": 253,
      "âĢ": 254,
      "ve": 255,
      "om": 256,
      "Ġl": 257,
      "st": 258,
      "Ġn": 259,
      "Ġis": 260,
      "ly": 261,
      "Ġbe": 262,
      "se": 263,
      "ĠT": 264,
      "Ġg": 265,
      "ol": 266,
      "ation": 267,
      "im": 268,
      "et": 269,
      "id": 270,
      "ur": 271,
      "ut": 272,
      "ot": 273,
      "ow": 274,
      "ce": 275,
      "ch": 276,
      "ra": 277,
      "Ġy": 278,
      "Ġfor": 279,
      "ig": 280,
      "Ġu": 281,
      "ĠA": 282,
      "Ġthat": 283,
      "Ġon": 284,
      "Ġst": 285,
      "ver": 286,
      "ĠS": 287,
      "ir": 288,
      "ĠI": 289,
      "ul": 290,
      "Ġyou": 291,
      "ĠC": 292,
      "ay": 293,
      "ith": 294,
      "Ġas": 295,
      "Ġare": 296,
      "am": 297,
      "el": 298,
      "Ġpro": 299,
      "Ġcon": 300,
      "ad": 301,
      "her": 302,
      "Ġwith": 303,
      "Ġan": 304,
      "if": 305,
      "Ġor": 306,
      "Ġal": 307,
      "Ġit": 308,
      "Ġwh": 309,
      "od": 310,
      "âĢĻ": 311,
      "ter": 312,
      "ment": 313,
      "ĠThe": 314,
      "Ġ(": 315,
      "ge": 316,
      "ĠM": 317,
      "th": 318,
      "ess": 319,
      "op": 320,
      "Ġde": 321,
      "ate": 322,
      "ĠP": 323,
      "ers": 324,
      "Ġhe": 325,
      "ill": 326,
      "ies": 327,
      "ab": 328,
      "Ġex": 329,
      "ect": 330,
      "ist": 331,
      "us": 332,
      "Ġ1": 333,
      "Ġcom": 334,
      "ore": 335,
      "Ġwe": 336,
      "Ġsu": 337,
      "ity": 338,
      "ive": 339,
      "ĠB": 340,
      "Ġha": 341,
      "est": 342,
      "ke": 343,
      "ac": 344,
      "Ġv": 345,
      "res": 346,
      "um": 347,
      "ant": 348,
      "Ġcan": 349,
      "rom": 350,
      "ld": 351,
      "os": 352,
      "qu": 353,
      "iv": 354,
      "em": 355,
      "ain": 356,
      "ĠâĢ": 357,
      "nt": 358,
      "ĠH": 359,
      "ĠW": 360,
      "pp": 361,
      "Ġby": 362,
      "igh": 363,
      "Ġch": 364,
      "ud": 365,
      "Ġat": 366,
      "Ġfrom": 367,
      "ĠD": 368,
      "ort": 369,
      "oc": 370,
      "Ġne": 371,
      "Ġr": 372,
      "ĠE": 373,
      "ial": 374,
      "and": 375,
      "Ġwas": 376,
      "Ġ2": 377,
      "Ġse": 378,
      "Ġle": 379,
      "ure": 380,
      "ĠF": 381,
      "ĠR": 382,
      "un": 383,
      "art": 384,
      "Ġnot": 385,
      "Ġhave": 386,
      "ical": 387,
      "Ġsh": 388,
      "Ġen": 389,
      "og": 390,
      "ĠG": 391,
      "ĠN": 392,
      "Ġsp": 393,
      "ri": 394,
      "Ġwor": 395,
      "ĠL": 396,
      "Ġthis": 397,
      "Ġab": 398,
      "Ġyour": 399,
      "pt": 400,
      "rou": 401,
      "ight": 402,
      "du": 403,
      "Ġim": 404,
      "ere": 405,
      "ome": 406,
      "ost": 407,
      "ich": 408,
      "ions": 409,
      "all": 410,
      "our": 411,
      "ther": 412,
      "Ġus": 413,
      "ould": 414,
      "Ġpl": 415,
      "gh": 416,
      "per": 417,
      "ine": 418,
      "The": 419,
      "act": 420,
      "Ġtheir": 421,
      "ated": 422,
      "out": 423,
      "ff": 424,
      "ag": 425,
      "ard": 426,
      "ell": 427,
      "00": 428,
      "pl": 429,
      "Ġint": 430,
      "are": 431,
      "âĢĿ": 432,
      "ak": 433,
      "Ġthey": 434,
      "age": 435,
      "Ġk": 436,
      "ide": 437,
      "Ġwhe": 438,
      "ood": 439,
      "ust": 440,
      "ast": 441,
      "ans": 442,
      "ear": 443,
      "Ġwill": 444,
      "ĠO": 445,
      "Ġwhich": 446,
      "iz": 447,
      "ult": 448,
      "ec": 449,
      "Ġinc": 450,
      "Ġad": 451,
      "Ġall": 452,
      "ous": 453,
      "Ġdis": 454,
      "Ġcont": 455,
      "Ġmore": 456,
      "Ġcomp": 457,
      "end": 458,
      "cc": 459,
      "ru": 460,
      "Ġres": 461,
      "vel": 462,
      "Ġdo": 463,
      "so": 464,
      "ip": 465,
      "ĠIn": 466,
      "ib": 467,
      "ĠU": 468,
      "ĠJ": 469,
      "Ġhas": 470,
      "ong": 471,
      "ap": 472,
      "ations": 473,
      "ĠâĢľ": 474,
      "orm": 475,
      "ild": 476,
      "ia": 477,
      "ĠTh": 478,
      "able": 479,
      "Ġman": 480,
      "ater": 481,
      "ence": 482,
      "ks": 483,
      "ew": 484,
      "Ġimp": 485,
      "ual": 486,
      "ary": 487,
      "Ġother": 488,
      "Ġcl": 489,
      "Ġalso": 490,
      "ire": 491,
      "Ġte": 492,
      "ep": 493,
      "ind": 494,
      "ry": 495,
      "ake": 496,
      "ach": 497,
      "Ġbut": 498,
      "ents": 499,
      "reat": 500,
      "ance": 501,
      "Ġme": 502,
      "Ġper": 503,
      "ase": 504,
      "ign": 505,
      "Ġone": 506,
      "ress": 507,
      "ose": 508,
      "Ġso": 509,
      "ass": 510,
      "very": 511,
      "av": 512,
      "Ġout": 513,
      "Ġj": 514,
      "au": 515,
      "Ġwere": 516,
      "ition": 517,
      "ction": 518,
      "one": 519,
      "Ġpre": 520,
      "ime": 521,
      "ice": 522,
      "Ġpe": 523,
      "Ġapp": 524,
      "Ġstud": 525,
      "Ġabout": 526,
      "Ġpart": 527,
      "Ġun": 528,
      "ens": 529,
      "ace": 530,
      "Ġev": 531,
      "ber": 532,
      "Ġsy": 533,
      "ord": 534,
      "Ġthem": 535,
      "Ġinf": 536,
      "ack": 537,
      "ike": 538,
      "Ġar": 539,
      "ok": 540,
      "ount": 541,
      "Ġ20": 542,
      "ue": 543,
      "Ġwho": 544,
      "Ġcomm": 545,
      ").": 546,
      "ors": 547,
      "ces": 548,
      "ĠIt": 549,
      "Ġsc": 550,
      "now": 551,
      "ish": 552,
      "ite": 553,
      "ople": 554,
      "iff": 555,
      "ang": 556,
      "ĠSt": 557,
      "ory": 558,
      "low": 559,
      "Ġbec": 560,
      "Ġqu": 561,
      "ame": 562,
      "Ġmay": 563,
      "olog": 564,
      "ĠK": 565,
      "Ġup": 566,
      "ound": 567,
      "ree": 568,
      "ub": 569,
      "ile": 570,
      "Ġ19": 571,
      "ric": 572,
      "Ġwhen": 573,
      "Ġthan": 574,
      "Ġsome": 575,
      "Ġwork": 576,
      "ays": 577,
      "Ġthere": 578,
      "ie": 579,
      "Ġrec": 580,
      "Ġpeople": 581,
      "ail": 582,
      "ings": 583,
      "nder": 584,
      "ĠThis": 585,
      "Ġdiff": 586,
      "ren": 587,
      "alth": 588,
      "Ġtime": 589,
      "Ġour": 590,
      "Ġhow": 591,
      "Ġgo": 592,
      "Ġtra": 593,
      "Ġyear": 594,
      "Ġhis": 595,
      "ates": 596,
      "Ġover": 597,
      "rit": 598,
      "Ġinto": 599,
      "Ġbeen": 600,
      "Ġthese": 601,
      "ough": 602,
      "Ġuse": 603,
      "ause": 604,
      "Ġlike": 605,
      "rough": 606,
      "Ġits": 607,
      "Ġag": 608,
      "ĠCh": 609,
      "hy": 610,
      "lud": 611,
      "Ġro": 612,
      "Ġcons": 613,
      "Ġhel": 614,
      "Ġneed": 615,
      "ally": 616,
      "Ġact": 617,
      "Ġcol": 618,
      "Ġbet": 619,
      "ning": 620,
      "Ġmost": 621,
      "ities": 622,
      "Ġtr": 623,
      "mer": 624,
      "ian": 625,
      "ific": 626,
      "Ġknow": 627,
      "Ġbl": 628,
      "ll": 629,
      "ĠV": 630,
      "Ġhelp": 631,
      "ons": 632,
      "ms": 633,
      "Ġ3": 634,
      "ffect": 635,
      "ĠY": 636,
      "row": 637,
      "ond": 638,
      "erv": 639,
      "ove": 640,
      "Ġunder": 641,
      "vers": 642,
      "we": 643,
      "int": 644,
      "tern": 645,
      "Ġacc": 646,
      "velop": 647,
      "ook": 648,
      "Ġif": 649,
      "ments": 650,
      "Ġchild": 651,
      "Ġra": 652,
      "lect": 653,
      "te": 654,
      "stem": 655,
      "les": 656,
      "ject": 657,
      "ious": 658,
      "Ġdes": 659,
      "cess": 660,
      "Ġsuch": 661,
      "Ġrel": 662,
      "ple": 663,
      "Ġinclud": 664,
      "irst": 665,
      "yp": 666,
      "lic": 667,
      "Ġprodu": 668,
      "Ġany": 669,
      "ĠâĢĵ": 670,
      "Ġnew": 671,
      "Ġwhat": 672,
      "red": 673,
      "Ġused": 674,
      "Ġfe": 675,
      "Ġsa": 676,
      "ient": 677,
      "ative": 678,
      "ating": 679,
      "'s": 680,
      "ob": 681,
      "ular": 682,
      "Ġwould": 683,
      "Ġhad": 684,
      "Ġtw": 685,
      "Ġrep": 686,
      "ov": 687,
      "Ġmany": 688,
      "Ġthrough": 689,
      "Ġdevelop": 690,
      "Ġdiffere": 691,
      "Ġdi": 692,
      "ced": 693,
      "ational": 694,
      "Ġind": 695,
      "ool": 696,
      "ph": 697,
      "Ġpr": 698,
      "Ġprov": 699,
      "Ġ201": 700,
      "Ġac": 701,
      "Ġam": 702,
      "Ġgen": 703,
      "Ġonly": 704,
      "eth": 705,
      "ise": 706,
      "ics": 707,
      "ful": 708,
      "Ġhealth": 709,
      "Ġspec": 710,
      "Ġem": 711,
      "Ġno": 712,
      "hed": 713,
      "round": 714,
      "oss": 715,
      "uring": 716,
      "fter": 717,
      "Ġoff": 718,
      "Ġsystem": 719,
      "ink": 720,
      "ark": 721,
      "ility": 722,
      "hen": 723,
      "Ġpo": 724,
      "Ġreg": 725,
      "als": 726,
      "Ġfirst": 727,
      "oth": 728,
      "Ġexp": 729,
      "ts": 730,
      "Ġshould": 731,
      "),": 732,
      "Ġdec": 733,
      "rop": 734,
      "ased": 735,
      "erm": 736,
      "ten": 737,
      "ath": 738,
      "ne": 739,
      "uc": 740,
      "Ġadd": 741,
      "ract": 742,
      "Ġwell": 743,
      "old": 744,
      "ange": 745,
      "ible": 746,
      "Ġsupp": 747,
      "Ġget": 748,
      "fore": 749,
      "Ġob": 750,
      "Ġtwo": 751,
      "rib": 752,
      "ĠUn": 753,
      "ower": 754,
      "Ġass": 755,
      "ures": 756,
      "Ġatt": 757,
      "ife": 758,
      "Ġwater": 759,
      "Ġsur": 760,
      "ween": 761,
      "iss": 762,
      "In": 763,
      "Ġrem": 764,
      "own": 765,
      "Ġfl": 766,
      "Ġmake": 767,
      "Ġlear": 768,
      "ert": 769,
      "Ġhigh": 770,
      "Ġsm": 771,
      "arch": 772,
      "ble": 773,
      "hat": 774,
      "Ġco": 775,
      "gan": 776,
      "Ġimport": 777,
      "Ġinv": 778,
      "ants": 779,
      "Ġbetween": 780,
      "ram": 781,
      "wn": 782,
      "its": 783,
      "ng": 784,
      "sel": 785,
      "ever": 786,
      "cy": 787,
      "ick": 788,
      "ting": 789,
      "Ġpers": 790,
      "hes": 791,
      "Ġwhere": 792,
      "Ġbu": 793,
      "chn": 794,
      "Ġyears": 795,
      "Ġpres": 796,
      "ĠHe": 797,
      "Ġ\"": 798,
      "Ġcould": 799,
      "Ġsub": 800,
      "Ġ4": 801,
      "Ġdifferent": 802,
      "form": 803,
      "ied": 804,
      "ily": 805,
      "ural": 806,
      "ience": 807,
      "Ġexam": 808,
      "Ġtrans": 809,
      "ata": 810,
      "ade": 811,
      "Ġ5": 812,
      "ology": 813,
      "Ġrese": 814,
      "Ġexper": 815,
      "oy": 816,
      "chool": 817,
      "ss": 818,
      "uch": 819,
      "aw": 820,
      "Ġtyp": 821,
      "ution": 822,
      "ident": 823,
      "ef": 824,
      "iet": 825,
      "Ġinter": 826,
      "ness": 827,
      "Ġinst": 828,
      "Ġeffect": 829,
      "xt": 830,
      "Ġcar": 831,
      "Ġmod": 832,
      "Ġmed": 833,
      "ins": 834,
      "Ġher": 835,
      "Ġpol": 836,
      "ines": 837,
      "Ġform": 838,
      "Ġworld": 839,
      "Ġway": 840,
      "ered": 841,
      "Ġeven": 842,
      "Ġincre": 843,
      "Ġnum": 844,
      "ually": 845,
      "Ġear": 846,
      "Ġsim": 847,
      "Ġbecause": 848,
      "Ġke": 849,
      "get": 850,
      "Ġdisc": 851,
      "Ġlong": 852,
      ".âĢĿ": 853,
      "Ġjust": 854,
      "Ġvery": 855,
      "20": 856,
      "aking": 857,
      "Ġafter": 858,
      "Ġresp": 859,
      "Ġevery": 860,
      "Ġthen": 861,
      "ited": 862,
      "Ġsign": 863,
      "Ġcount": 864,
      "Ġprocess": 865,
      "Ġsoc": 866,
      "ature": 867,
      "ron": 868,
      "vent": 869,
      "gy": 870,
      "ody": 871,
      "land": 872,
      "Ġfound": 873,
      "ases": 874,
      "Ġsee": 875,
      "Ġhum": 876,
      "ically": 877,
      "Ġlar": 878,
      "ck": 879,
      "ps": 880,
      "Ġdet": 881,
      "Ġvar": 882,
      "ism": 883,
      "ict": 884,
      "ives": 885,
      "Ġchildren": 886,
      "Ġimportant": 887,
      "ft": 888,
      "ists": 889,
      "Ġinform": 890,
      "cept": 891,
      "Ġpat": 892,
      "arm": 893,
      "Ġresult": 894,
      "ollow": 895,
      "Ġed": 896,
      "Ġcent": 897,
      "iron": 898,
      "other": 899,
      "Ġfact": 900,
      "Ġfood": 901,
      "Ġref": 902,
      "Ġtechn": 903,
      "Ġph": 904,
      "meric": 905,
      "urn": 906,
      "Ġgener": 907,
      "Ġext": 908,
      "Ġthose": 909,
      "ues": 910,
      "Ġrequ": 911,
      "Ġsk": 912,
      "Ġbeing": 913,
      "Ġlife": 914,
      "iew": 915,
      "ruct": 916,
      "Ġeach": 917,
      "Ġca": 918,
      "con": 919,
      "Ġ200": 920,
      "Ġdep": 921,
      "Ġpartic": 922,
      "ork": 923,
      "Ġsec": 924,
      "Ġgrow": 925,
      "Ġcommun": 926,
      "cer": 927,
      "led": 928,
      "Ġlevel": 929,
      "Ġcall": 930,
      "ds": 931,
      "Ġloc": 932,
      "Ġlead": 933,
      "ages": 934,
      "omm": 935,
      "Ġcre": 936,
      "ĠWe": 937,
      "Ġduring": 938,
      "Ġread": 939,
      "Ġmuch": 940,
      "Th": 941,
      "Ġperson": 942,
      "Ġstudents": 943,
      "ices": 944,
      "imes": 945,
      "Ġpub": 946,
      "Ġ-": 947,
      "Ġdata": 948,
      "Ġprog": 949,
      "Ġown": 950,
      "Ġdoes": 951,
      "Ġfam": 952,
      "Ġset": 953,
      "Ġgra": 954,
      "ĠThey": 955,
      "ality": 956,
      "Ġdef": 957,
      "ĠIf": 958,
      "Ġmon": 959,
      "Ġart": 960,
      ".,": 961,
      "ys": 962,
      "ved": 963,
      "hip": 964,
      "..": 965,
      "ĠAl": 966,
      "ivers": 967,
      "Ġfollow": 968,
      "Ġdist": 969,
      "ĠAmeric": 970,
      "Ġmin": 971,
      "Ġfind": 972,
      "ĠHow": 973,
      "Ġstudy": 974,
      "Ġgood": 975,
      "Ġent": 976,
      "any": 977,
      "ĠAs": 978,
      "tle": 979,
      "ize": 980,
      "Ġshe": 981,
      "ized": 982,
      "19": 983,
      "Ġmain": 984,
      "gg": 985,
      "ection": 986,
      "Ġright": 987,
      "Ġdise": 988,
      "Ġcur": 989,
      "ather": 990,
      "Ġmy": 991,
      "Ġche": 992,
      "Ġusing": 993,
      "Ġstr": 994,
      "stand": 995,
      "Ġav": 996,
      "Ġproble": 997,
      "Ġins": 998,
      "ward": 999,
      "Ġaut": 1000,
      "Ġback": 1001,
      "io": 1002,
      "viron": 1003,
      "Ġinformation": 1004,
      "Ġtreat": 1005,
      "ĠPro": 1006,
      "Ġschool": 1007,
      "Ġsame": 1008,
      "ential": 1009,
      "Ġtest": 1010,
      "Ġ18": 1011,
      "Ġbody": 1012,
      "Ġoften": 1013,
      "Ġcor": 1014,
      "ivid": 1015,
      "Ġsol": 1016,
      "vern": 1017,
      "ĠFor": 1018,
      "Ġcomple": 1019,
      "Ġend": 1020,
      "eg": 1021,
      "Ġboth": 1022,
      "Ġtake": 1023,
      "read": 1024,
      "Ġ6": 1025,
      "ĠAn": 1026,
      "Ġval": 1027,
      "cent": 1028,
      "Ġshow": 1029,
      "Ġmade": 1030,
      "Ġpop": 1031,
      "Ġris": 1032,
      "inal": 1033,
      "Ġbefore": 1034,
      "Ġless": 1035,
      "ien": 1036,
      "ale": 1037,
      "Ġprot": 1038,
      "Ġgl": 1039,
      "Ġday": 1040,
      "Ġsmall": 1041,
      "Ġwhile": 1042,
      "Ġexpl": 1043,
      "der": 1044,
      "ted": 1045,
      "ĠInd": 1046,
      "Ġgrou": 1047,
      "ĠâĢĺ": 1048,
      "ock": 1049,
      "Ġstart": 1050,
      "Ġsaid": 1051,
      "omen": 1052,
      "hys": 1053,
      "rol": 1054,
      "Ġaround": 1055,
      "Ġactiv": 1056,
      "ined": 1057,
      "Ġredu": 1058,
      "Ġcommon": 1059,
      "nce": 1060,
      "Ġbr": 1061,
      "vironment": 1062,
      "iety": 1063,
      "Ġfun": 1064,
      "akes": 1065,
      "ty": 1066,
      "und": 1067,
      "Ġresearch": 1068,
      "Ġsupport": 1069,
      "ince": 1070,
      "Ġposs": 1071,
      "Ġhist": 1072,
      "ulation": 1073,
      "Ġhand": 1074,
      "dition": 1075,
      "Ġclass": 1076,
      "ergy": 1077,
      "ital": 1078,
      "ĠYou": 1079,
      "Ġcare": 1080,
      "ral": 1081,
      "Ġorgan": 1082,
      "Ġagain": 1083,
      "Ġserv": 1084,
      "rap": 1085,
      "imate": 1086,
      "ix": 1087,
      "Ġvis": 1088,
      ",âĢĿ": 1089,
      "Ġdesign": 1090,
      "iving": 1091,
      "Ġbo": 1092,
      "Ġlit": 1093,
      "iel": 1094,
      "Ġlook": 1095,
      "Ġnumber": 1096,
      "ĠCon": 1097,
      "ium": 1098,
      "Ġdown": 1099,
      "Ġprovid": 1100,
      "ĠAr": 1101,
      "Ġocc": 1102,
      "Ġ10": 1103,
      "Ġcle": 1104,
      "ier": 1105,
      "Ġma": 1106,
      "iqu": 1107,
      "Ġpower": 1108,
      "Ġnow": 1109,
      "ute": 1110,
      "Ġhuman": 1111,
      "ars": 1112,
      "ves": 1113,
      "Ġexample": 1114,
      "Ġchar": 1115,
      "ving": 1116,
      "up": 1117,
      "Ġconsid": 1118,
      "Ġelect": 1119,
      "ury": 1120,
      "Ġconf": 1121,
      "Ġplan": 1122,
      "Ġunderstand": 1123,
      "Ġstate": 1124,
      "000": 1125,
      "irect": 1126,
      "ĠSp": 1127,
      "Ġmust": 1128,
      "oms": 1129,
      "||": 1130,
      "âĢĵ": 1131,
      "ĠThere": 1132,
      "Ġbel": 1133,
      "Ġdr": 1134,
      "ven": 1135,
      "rain": 1136,
      "Ġser": 1137,
      "ished": 1138,
      "the": 1139,
      "ĠSc": 1140,
      "Ġmem": 1141,
      "âĢľ": 1142,
      "acter": 1143,
      "hers": 1144,
      "This": 1145,
      "Ġpoint": 1146,
      "air": 1147,
      "Ġcell": 1148,
      "Ġ7": 1149,
      "rent": 1150,
      "Ġmet": 1151,
      "ger": 1152,
      "anc": 1153,
      "Ġland": 1154,
      "Ġeas": 1155,
      "Ġthree": 1156,
      "day": 1157,
      "Ġbuild": 1158,
      "Ġpract": 1159,
      "ional": 1160,
      "gen": 1161,
      "Ġincluding": 1162,
      "ross": 1163,
      "ave": 1164,
      "âĢĶ": 1165,
      "ially": 1166,
      "Ġgreat": 1167,
      "10": 1168,
      "oh": 1169,
      "ids": 1170,
      "Ġwrit": 1171,
      "Ġlearn": 1172,
      "itive": 1173,
      "Ġallow": 1174,
      "self": 1175,
      "ead": 1176,
      "uss": 1177,
      "ividual": 1178,
      "Ġproduct": 1179,
      "ex": 1180,
      "esp": 1181,
      "cl": 1182,
      "itions": 1183,
      "Ġadv": 1184,
      "ains": 1185,
      "Ġequ": 1186,
      "ĠNew": 1187,
      "com": 1188,
      "Ġcontin": 1189,
      "Ġop": 1190,
      "Ġlarge": 1191,
      "Ġrequire": 1192,
      "Ġsom": 1193,
      "aterial": 1194,
      "Ġest": 1195,
      "Ġwant": 1196,
      "ters": 1197,
      "Ġgovern": 1198,
      "Ġaw": 1199,
      "Ġbeh": 1200,
      "ries": 1201,
      "Ġreport": 1202,
      "Ġsym": 1203,
      "Ġ8": 1204,
      "ouse": 1205,
      "ee": 1206,
      "Ġknown": 1207,
      "ared": 1208,
      "Ġgu": 1209,
      "Ġben": 1210,
      "Ġimpro": 1211,
      "Ġstill": 1212,
      "Ġdisease": 1213,
      "Ġthink": 1214,
      "els": 1215,
      "ets": 1216,
      "Ġquest": 1217,
      "ĠBut": 1218,
      "Ġenvironment": 1219,
      "Ġcour": 1220,
      "ĠThese": 1221,
      "line": 1222,
      "eng": 1223,
      "Ġconst": 1224,
      "Ġcaus": 1225,
      "Ġeduc": 1226,
      "ering": 1227,
      "Ġplace": 1228,
      "ull": 1229,
      "Ġmight": 1230,
      "ethod": 1231,
      "Ġappro": 1232,
      "Ġhim": 1233,
      "ĠAnd": 1234,
      "Ġdid": 1235,
      "ption": 1236,
      "Ġindividual": 1237,
      "Ġthough": 1238,
      "reen": 1239,
      "Ġpain": 1240,
      "Ġcalled": 1241,
      "outh": 1242,
      "iversity": 1243,
      "erest": 1244,
      "Ġide": 1245,
      "Ġsocial": 1246,
      "tt": 1247,
      "ected": 1248,
      "conom": 1249,
      "Ġtem": 1250,
      "Ġve": 1251,
      "iven": 1252,
      "Ġbest": 1253,
      "ization": 1254,
      "Ġpot": 1255,
      "ash": 1256,
      "ources": 1257,
      "Ġblood": 1258,
      "iver": 1259,
      "Ġmat": 1260,
      "Ġplay": 1261,
      "Ġiss": 1262,
      "iod": 1263,
      "Ġfew": 1264,
      "ah": 1265,
      "Ġet": 1266,
      "Ġprof": 1267,
      "iness": 1268,
      "Ġimm": 1269,
      "Ġchange": 1270,
      "ental": 1271,
      "Ġphys": 1272,
      "Ġchang": 1273,
      "Ġstand": 1274,
      "Ġret": 1275,
      "Ġdon": 1276,
      "oci": 1277,
      "Ġpos": 1278,
      "Ġwithout": 1279,
      "ination": 1280,
      "Ġwithin": 1281,
      "Ġlearning": 1282,
      "Ġ9": 1283,
      "Ġident": 1284,
      "inc": 1285,
      "Ġmaterial": 1286,
      "Ġpur": 1287,
      "ner": 1288,
      "Ġhome": 1289,
      "Ġpublic": 1290,
      "ording": 1291,
      "Ġ&": 1292,
      "ffic": 1293,
      "Ġrisk": 1294,
      "Ġdem": 1295,
      "Ġdevelopment": 1296,
      "Ġenergy": 1297,
      "Ġpresent": 1298,
      "alk": 1299,
      "bs": 1300,
      "ĠIs": 1301,
      "Ġlight": 1302,
      "ason": 1303,
      "Ġair": 1304,
      "de": 1305,
      "Ġbre": 1306,
      "osed": 1307,
      "ax": 1308,
      "Ġinclude": 1309,
      "ration": 1310,
      "ills": 1311,
      "angu": 1312,
      "less": 1313,
      "Ġsit": 1314,
      "ertain": 1315,
      "Ġant": 1316,
      "Ġproject": 1317,
      "agn": 1318,
      "me": 1319,
      "arent": 1320,
      "Ġcap": 1321,
      "Ġkeep": 1322,
      "ense": 1323,
      "What": 1324,
      "ability": 1325,
      "lish": 1326,
      "orn": 1327,
      "Ġbetter": 1328,
      "Ġlow": 1329,
      "Ġmus": 1330,
      "Ġwomen": 1331,
      "Ġmethod": 1332,
      "ĠHowever": 1333,
      "Ġproper": 1334,
      "ior": 1335,
      "ways": 1336,
      "ify": 1337,
      "Ġeng": 1338,
      "Ġmark": 1339,
      "ank": 1340,
      "Ġfeel": 1341,
      "Ġbecome": 1342,
      "rodu": 1343,
      "Ġanal": 1344,
      "oun": 1345,
      "erc": 1346,
      "ĠEng": 1347,
      "Ġbenef": 1348,
      "Ġnat": 1349,
      "Ġsl": 1350,
      "It": 1351,
      "Ġsaf": 1352,
      "bers": 1353,
      "ining": 1354,
      "Ġcause": 1355,
      "Ġmeas": 1356,
      "Ġpass": 1357,
      "Ġcult": 1358,
      "Ġinterest": 1359,
      "Ġdirect": 1360,
      "Ġanother": 1361,
      "atic": 1362,
      "ived": 1363,
      "Ġcontrol": 1364,
      "ological": 1365,
      "Ġarea": 1366,
      "Ġbas": 1367,
      "Ġmill": 1368,
      "ĠDe": 1369,
      "ients": 1370,
      "Ġmeans": 1371,
      "Ġrest": 1372,
      "Ġtop": 1373,
      "jor": 1374,
      "Ġopp": 1375,
      "ris": 1376,
      "Ġplant": 1377,
      "Ġbelie": 1378,
      "Ġperform": 1379,
      "ug": 1380,
      "Ġeconom": 1381,
      "Ġtoo": 1382,
      "Ġaffect": 1383,
      "ified": 1384,
      "ats": 1385,
      "ource": 1386,
      "Ġmove": 1387,
      "Ġanim": 1388,
      "Ġorder": 1389,
      "ccess": 1390,
      "oid": 1391,
      "ently": 1392,
      "ĠAd": 1393,
      "Ġreal": 1394,
      "ĠWh": 1395,
      "Ġleg": 1396,
      "Ġhapp": 1397,
      "Ġprovide": 1398,
      "Ġsever": 1399,
      "view": 1400,
      "ern": 1401,
      "Ġbus": 1402,
      "eed": 1403,
      "Ġold": 1404,
      "Ġindu": 1405,
      "ples": 1406,
      "ield": 1407,
      "ogn": 1408,
      "Ġpar": 1409,
      "Ġfamily": 1410,
      "Ġable": 1411,
      "Ġinfl": 1412,
      "ik": 1413,
      "tain": 1414,
      "ĠâĢĶ": 1415,
      "sc": 1416,
      "pect": 1417,
      "Ġoper": 1418,
      "ĠWhen": 1419,
      "Ġtreatment": 1420,
      "Ġess": 1421,
      "Ġoccur": 1422,
      "Ġthings": 1423,
      "ĠEx": 1424,
      "ention": 1425,
      "man": 1426,
      "to": 1427,
      "Ġaddition": 1428,
      "Ġtre": 1429,
      "Ġdesc": 1430,
      "Ġothers": 1431,
      "Ġmean": 1432,
      "ories": 1433,
      "eral": 1434,
      "Ġimpact": 1435,
      "Ġbeg": 1436,
      "ĠRe": 1437,
      "Ġhig": 1438,
      "Ġhere": 1439,
      "Ġele": 1440,
      "Ġearly": 1441,
      "Ġlaw": 1442,
      "Ġlangu": 1443,
      "Ġcal": 1444,
      "Ġpossible": 1445,
      "Ġsecond": 1446,
      "az": 1447,
      "Ġparticular": 1448,
      "Ġmajor": 1449,
      "ĠSh": 1450,
      "Ġcurrent": 1451,
      "Ġfin": 1452,
      "ailable": 1453,
      "Ġgroup": 1454,
      "arc": 1455,
      "here": 1456,
      "Ġsignific": 1457,
      "Ġagainst": 1458,
      "Ġlast": 1459,
      "Ġfore": 1460,
      "Ġinvol": 1461,
      "Ġprevent": 1462,
      "ians": 1463,
      "Ġaccess": 1464,
      "ocus": 1465,
      "Ġgovernment": 1466,
      "Ġter": 1467,
      "icle": 1468,
      "cle": 1469,
      "ision": 1470,
      "ĠWhat": 1471,
      "Ġperiod": 1472,
      "ĠTo": 1473,
      "ina": 1474,
      "elf": 1475,
      "Ġdev": 1476,
      "ards": 1477,
      "ĠUniversity": 1478,
      "Ġprogram": 1479,
      "ĠAmerican": 1480,
      "ton": 1481,
      "par": 1482,
      "cing": 1483,
      "hor": 1484,
      "use": 1485,
      "Ġlim": 1486,
      "Ġspecies": 1487,
      "ots": 1488,
      "ĠRes": 1489,
      "Ġcost": 1490,
      "idence": 1491,
      "Ġnon": 1492,
      "Ġvir": 1493,
      "ĠCl": 1494,
      "Ġdel": 1495,
      "Ġprom": 1496,
      "Ġbased": 1497,
      "lished": 1498,
      "Ġtype": 1499,
      "Ġseveral": 1500,
      "Ġhistory": 1501,
      "Ġfac": 1502,
      "Ġcreat": 1503,
      "ploy": 1504,
      "Ġdue": 1505,
      "ends": 1506,
      "Ġcond": 1507,
      "If": 1508,
      "ote": 1509,
      "Ġunt": 1510,
      "Ġwar": 1511,
      "aper": 1512,
      "port": 1513,
      "Ġsay": 1514,
      "Ġage": 1515,
      "ling": 1516,
      "ances": 1517,
      "ĠPl": 1518,
      "ilar": 1519,
      "urop": 1520,
      "Ġconn": 1521,
      "Ġtimes": 1522,
      "Ġcountry": 1523,
      "Ġwee": 1524,
      "Ġmil": 1525,
      "ĠZ": 1526,
      "orth": 1527,
      "Ġareas": 1528,
      "Ġlist": 1529,
      "sy": 1530,
      "Ġorig": 1531,
      "Ġfre": 1532,
      "Ġel": 1533,
      "ones": 1534,
      "ĠUnited": 1535,
      "Ġcase": 1536,
      "Ġopen": 1537,
      "Ġlevels": 1538,
      "Ġsince": 1539,
      "We": 1540,
      "Ġcho": 1541,
      "urther": 1542,
      "Ġamount": 1543,
      "How": 1544,
      "Ġintern": 1545,
      "Ġnatural": 1546,
      "une": 1547,
      "ator": 1548,
      "Ġcome": 1549,
      "ression": 1550,
      "omp": 1551,
      "Ġ15": 1552,
      "Ġstruct": 1553,
      "rist": 1554,
      "Ġmonth": 1555,
      "ised": 1556,
      "Ġpress": 1557,
      "Ġbi": 1558,
      "Ġfollowing": 1559,
      "Ġfocus": 1560,
      "Ġfree": 1561,
      "Ġ.": 1562,
      "Ġhard": 1563,
      "ĠGod": 1564,
      "Ġamong": 1565,
      "icult": 1566,
      "Ġput": 1567,
      "Ġ199": 1568,
      "Ġpost": 1569,
      "ptoms": 1570,
      "Ġbir": 1571,
      "Ġlo": 1572,
      "ended": 1573,
      "ission": 1574,
      "though": 1575,
      "Ġgr": 1576,
      "Ġsignificant": 1577,
      "Ġindust": 1578,
      "work": 1579,
      "Ġlab": 1580,
      "Ġcertain": 1581,
      "Ġproblem": 1582,
      "Ġnear": 1583,
      "Ġmult": 1584,
      "amp": 1585,
      "ortun": 1586,
      "Ġavailable": 1587,
      "ane": 1588,
      "Ġconsum": 1589,
      "ething": 1590,
      "ĠQ": 1591,
      "ĠCan": 1592,
      "Ġflow": 1593,
      "Ġobject": 1594,
      "Ġhead": 1595,
      "Ġheart": 1596,
      "uture": 1597,
      "ret": 1598,
      "Ġrun": 1599,
      "agement": 1600,
      "urope": 1601,
      "Ġhy": 1602,
      "Ġmaking": 1603,
      "Ġlikely": 1604,
      "osp": 1605,
      "Ġexperience": 1606,
      "Ġname": 1607,
      "Ġscient": 1608,
      "Ġmar": 1609,
      "Ġmen": 1610,
      "Ġproblems": 1611,
      "ĠCol": 1612,
      "Ġassoci": 1613,
      "Ġ[": 1614,
      "Ġalways": 1615,
      "oks": 1616,
      "ledge": 1617,
      "ably": 1618,
      "ww": 1619,
      "oint": 1620,
      "Ġbehav": 1621,
      "be": 1622,
      "Ġpercent": 1623,
      "ately": 1624,
      "Ġyoung": 1625,
      "Ġpotential": 1626,
      "Ġshort": 1627,
      "Ġincrease": 1628,
      "ole": 1629,
      "Ġvol": 1630,
      "Ġlocal": 1631,
      "Ġbook": 1632,
      "ring": 1633,
      "ĠSe": 1634,
      "ĠBe": 1635,
      "Ġneeds": 1636,
      "Ġcir": 1637,
      "Ġtechnology": 1638,
      "ication": 1639,
      "Ġfunction": 1640,
      "Ġsomething": 1641,
      "Ġcr": 1642,
      "Ġfour": 1643,
      "Ġworks": 1644,
      "Ġrece": 1645,
      "ecially": 1646,
      "Ġinvest": 1647,
      "Ġsuccess": 1648,
      "Ġbro": 1649,
      "Ġlittle": 1650,
      "ox": 1651,
      "As": 1652,
      "Ġcreate": 1653,
      "br": 1654,
      "11": 1655,
      "Ġwhy": 1656,
      "Ġ12": 1657,
      "Ġusually": 1658,
      "Ġsystems": 1659,
      "over": 1660,
      "Ġeffective": 1661,
      "Ġview": 1662,
      "Ġlet": 1663,
      "Ġsw": 1664,
      "Ġcomput": 1665,
      "ĠEurope": 1666,
      "Ġparent": 1667,
      "ope": 1668,
      "icro": 1669,
      "Ġcomb": 1670,
      "Ġresults": 1671,
      "por": 1672,
      "ending": 1673,
      "Ġteac": 1674,
      "Ġcommunity": 1675,
      "Ġfar": 1676,
      "atory": 1677,
      "Ġcells": 1678,
      "Ġdifficult": 1679,
      "Ġturn": 1680,
      "ggest": 1681,
      "Ġey": 1682,
      "ides": 1683,
      "ĠEn": 1684,
      "Ġconditions": 1685,
      "Ġimprove": 1686,
      "Ġlanguage": 1687,
      "Ġprofess": 1688,
      "Ġspecific": 1689,
      "Ġbrain": 1690,
      "Ġsymptoms": 1691,
      "Ġgive": 1692,
      "There": 1693,
      "Ġdays": 1694,
      "ours": 1695,
      "ĠBl": 1696,
      "ĠUS": 1697,
      "Ġbusiness": 1698,
      "acc": 1699,
      "especially": 1700,
      "ĠStates": 1701,
      "Ġtemper": 1702,
      "Ġdam": 1703,
      "ames": 1704,
      "Ġfuture": 1705,
      "Ġalong": 1706,
      "ither": 1707,
      "not": 1708,
      "Ġdeath": 1709,
      "Ġtypes": 1710,
      "Ġfil": 1711,
      "Ġsays": 1712,
      "Ġtoday": 1713,
      "Ġenc": 1714,
      "ĠAf": 1715,
      "Ġplants": 1716,
      "ĠComm": 1717,
      "Ġtry": 1718,
      "Ġgiven": 1719,
      "Ġcontain": 1720,
      "ured": 1721,
      "Ġworking": 1722,
      "ĠTe": 1723,
      "asing": 1724,
      "ĠAt": 1725,
      "Ġuntil": 1726,
      "Ġacross": 1727,
      "Ġdeterm": 1728,
      "leep": 1729,
      "Ġcourse": 1730,
      "Ġsuggest": 1731,
      "Ġeducation": 1732,
      "hem": 1733,
      "Ġvarious": 1734,
      "ged": 1735,
      "aster": 1736,
      "ape": 1737,
      "Ġmind": 1738,
      "ilities": 1739,
      "ĠSo": 1740,
      "ateg": 1741,
      "Ġrepres": 1742,
      "Ġwords": 1743,
      "Ġclear": 1744,
      "Ġcountries": 1745,
      "Ġcharacter": 1746,
      "Ġhigher": 1747,
      "Ġ0": 1748,
      "ĠOr": 1749,
      "Ġapplic": 1750,
      "Ġsing": 1751,
      "12": 1752,
      "Ġpolit": 1753,
      "Ġ17": 1754,
      "Ġsimilar": 1755,
      "Ġrele": 1756,
      "Ġways": 1757,
      "Ġeffects": 1758,
      "oney": 1759,
      "Ġpopulation": 1760,
      "Ġmot": 1761,
      "Ġnet": 1762,
      "Ġstrong": 1763,
      "face": 1764,
      "vious": 1765,
      "of": 1766,
      "Ġtool": 1767,
      "Ġespecially": 1768,
      "raph": 1769,
      "aken": 1770,
      "rug": 1771,
      "Ġspace": 1772,
      "18": 1773,
      "gether": 1774,
      "Ġtogether": 1775,
      "ĠWor": 1776,
      "Ġpast": 1777,
      "ush": 1778,
      "ators": 1779,
      "atch": 1780,
      "Ġdra": 1781,
      "sw": 1782,
      "Ġspecial": 1783,
      "Ġobs": 1784,
      "lement": 1785,
      "Ġpatients": 1786,
      "ĠOn": 1787,
      "ember": 1788,
      "Ġcrit": 1789,
      "Ġcomplete": 1790,
      "Ġlater": 1791,
      "Ġnecess": 1792,
      "Ġchanges": 1793,
      "ried": 1794,
      "obal": 1795,
      "aps": 1796,
      "af": 1797,
      "ĠAll": 1798,
      "ĠCent": 1799,
      "Ġteam": 1800,
      "Ġkey": 1801,
      "Ġbegin": 1802,
      "Ġdig": 1803,
      "50": 1804,
      "Ġterm": 1805,
      "pr": 1806,
      "Ġask": 1807,
      "Ġskills": 1808,
      "ĠPh": 1809,
      "Ġdiscuss": 1810,
      "Ġlower": 1811,
      "Ġphysical": 1812,
      "Ġenough": 1813,
      "aces": 1814,
      "Ġrespons": 1815,
      "Ġchall": 1816,
      "Ġer": 1817,
      "Ġnext": 1818,
      "Ġgoing": 1819,
      "aring": 1820,
      "ems": 1821,
      "Ġens": 1822,
      "Ġnut": 1823,
      "olution": 1824,
      "Ġcy": 1825,
      "ĠNational": 1826,
      "Ġprotect": 1827,
      "Ġopt": 1828,
      "Ġappear": 1829,
      "tal": 1830,
      "Ġself": 1831,
      "idd": 1832,
      "thing": 1833,
      "selves": 1834,
      "Ġsure": 1835,
      "Ġabove": 1836,
      "Ġcases": 1837,
      "Ġkind": 1838,
      "ler": 1839,
      "Ġaway": 1840,
      "Ġquality": 1841,
      "omes": 1842,
      "etic": 1843,
      "Ġcancer": 1844,
      "St": 1845,
      "Ġstep": 1846,
      "Ġill": 1847,
      "ables": 1848,
      "Ġrelations": 1849,
      "Ġmillion": 1850,
      "aching": 1851,
      "Ġstudies": 1852,
      "Ġhaving": 1853,
      "ruction": 1854,
      "Ġexist": 1855,
      "//": 1856,
      "Ġcentury": 1857,
      "Ġchem": 1858,
      "sp": 1859,
      "iation": 1860,
      "Ġgre": 1861,
      "aves": 1862,
      "chie": 1863,
      "ique": 1864,
      "iting": 1865,
      "most": 1866,
      "nal": 1867,
      "side": 1868,
      "stit": 1869,
      "cul": 1870,
      "ysis": 1871,
      "Ġside": 1872,
      "Ġdescrib": 1873,
      "ribut": 1874,
      "Ġleast": 1875,
      "ored": 1876,
      "Ġmakes": 1877,
      "ĠChrist": 1878,
      "Ġlive": 1879,
      "Ġsens": 1880,
      "amm": 1881,
      "Ġknowledge": 1882,
      "Ġproduction": 1883,
      "Ġproducts": 1884,
      "Ġgrowth": 1885,
      "ym": 1886,
      "Ġz": 1887,
      "ires": 1888,
      "Ġconsider": 1889,
      "ired": 1890,
      "Ġbig": 1891,
      "Ġline": 1892,
      "orts": 1893,
      "Ġ16": 1894,
      "min": 1895,
      "Ġrad": 1896,
      "Ġlot": 1897,
      "Ġnever": 1898,
      "ray": 1899,
      "Ġrole": 1900,
      "://": 1901,
      "Ġstress": 1902,
      "acy": 1903,
      "...": 1904,
      "Ġactivities": 1905,
      "ware": 1906,
      "Ġauthor": 1907,
      "ĠAfric": 1908,
      "Ġemploy": 1909,
      "ned": 1910,
      "Ġresearc": 1911,
      "ges": 1912,
      "duct": 1913,
      "Ġrange": 1914,
      "Ġvalue": 1915,
      "ID": 1916,
      "ĠWith": 1917,
      "Ġmov": 1918,
      "Ġhowever": 1919,
      "oring": 1920,
      "Ġrecord": 1921,
      "Ġloss": 1922,
      "Ġwr": 1923,
      "Ġfull": 1924,
      "Ġneg": 1925,
      "Ġreason": 1926,
      "for": 1927,
      "Ġsubject": 1928,
      "Ġaccount": 1929,
      "Ġhouse": 1930,
      "oot": 1931,
      "ode": 1932,
      "Ġhealthy": 1933,
      "Ġnorm": 1934,
      "Ġinflu": 1935,
      "ĠSome": 1936,
      "Ġbelow": 1937,
      "Ġpaper": 1938,
      "Ġreduce": 1939,
      "Ġtru": 1940,
      "ales": 1941,
      "ready": 1942,
      "Ġfurther": 1943,
      "ĠMed": 1944,
      "Ġprim": 1945,
      "ĠBrit": 1946,
      "bon": 1947,
      "ilt": 1948,
      "fact": 1949,
      "oman": 1950,
      "mit": 1951,
      "Ġgeneral": 1952,
      "Ġ$": 1953,
      "Ġwhether": 1954,
      "Ġcolle": 1955,
      "uation": 1956,
      "sych": 1957,
      "ung": 1958,
      "'t": 1959,
      "ĠCO": 1960,
      "âĢ¦": 1961,
      "apt": 1962,
      "Ġpolic": 1963,
      "Ġissues": 1964,
      "Ġachie": 1965,
      "16": 1966,
      "15": 1967,
      "Ġresources": 1968,
      "An": 1969,
      "ĠGerm": 1970,
      "Ġpred": 1971,
      "ites": 1972,
      "Ġconcer": 1973,
      "oura": 1974,
      "Ġestab": 1975,
      "ification": 1976,
      "Ġrecomm": 1977,
      "isc": 1978,
      "Ġactivity": 1979,
      "For": 1980,
      "When": 1981,
      "ĠFr": 1982,
      "aut": 1983,
      "Ġprop": 1984,
      "amin": 1985,
      "ns": 1986,
      "verage": 1987,
      "iple": 1988,
      "ument": 1989,
      "alf": 1990,
      "emic": 1991,
      "atures": 1992,
      "ĠThat": 1993,
      "Ġsoil": 1994,
      "Ġmodel": 1995,
      "istic": 1996,
      "30": 1997,
      "Ġalready": 1998,
      "ĠEar": 1999,
      "Ġmedical": 2000,
      "osis": 2001,
      "by": 2002,
      "ery": 2003,
      "Ġrecogn": 2004,
      "lo": 2005,
      "ibility": 2006,
      "Ġmarket": 2007,
      "ĠHealth": 2008,
      "Ġleft": 2009,
      "Ġsum": 2010,
      "etimes": 2011,
      "ency": 2012,
      "Ġtoward": 2013,
      "Ġscience": 2014,
      "Ġreally": 2015,
      "Ġdiet": 2016,
      "Ġparticip": 2017,
      "Ġsleep": 2018,
      "Ġcity": 2019,
      "Ġstory": 2020,
      "Ġbuilding": 2021,
      "Ġquestion": 2022,
      "Ġindic": 2023,
      "Ġur": 2024,
      "Ġdone": 2025,
      "Ġpressure": 2026,
      "Ġabs": 2027,
      "Ġquestions": 2028,
      "ae": 2029,
      "Ġrate": 2030,
      "Ġ30": 2031,
      "Ġflu": 2032,
      "ott": 2033,
      "app": 2034,
      "Ġskin": 2035,
      "iol": 2036,
      "Ġcirc": 2037,
      "Ġfall": 2038,
      "ĠEnglish": 2039,
      "bo": 2040,
      "ivity": 2041,
      "ained": 2042,
      "200": 2043,
      "let": 2044,
      "Ġclose": 2045,
      "ĠOne": 2046,
      "Ġopportun": 2047,
      "Ġfund": 2048,
      "Ġexperien": 2049,
      "Ġcomes": 2050,
      "edi": 2051,
      "Ġsource": 2052,
      "Ġgroups": 2053,
      "ening": 2054,
      "Ġseen": 2055,
      "ipp": 2056,
      "ety": 2057,
      "Ġdeveloped": 2058,
      "Ġconcept": 2059,
      "rel": 2060,
      "Ġrepresent": 2061,
      "Ġoil": 2062,
      "ĠWar": 2063,
      "Ġhtt": 2064,
      "Ġdog": 2065,
      "Ġeither": 2066,
      "ĠGo": 2067,
      "ask": 2068,
      "ĠIm": 2069,
      "Ġclimate": 2070,
      "Ġwhole": 2071,
      "Ġpay": 2072,
      "Ġword": 2073,
      "Ġpractice": 2074,
      "Ġweight": 2075,
      "Ġconsidered": 2076,
      "Ġdeg": 2077,
      "Ġdrug": 2078,
      "ĠTr": 2079,
      "urity": 2080,
      "ĠLe": 2081,
      "Ġrather": 2082,
      "Ġrelationship": 2083,
      "ĠWorld": 2084,
      "Ġsimple": 2085,
      "Ġavoid": 2086,
      "Ġbecame": 2087,
      "ream": 2088,
      "Ġexerc": 2089,
      "Ġfat": 2090,
      "14": 2091,
      "Ġtext": 2092,
      "17": 2093,
      "Ġarticle": 2094,
      "Ġtradition": 2095,
      "Ġintrodu": 2096,
      "ips": 2097,
      "Ġunderstanding": 2098,
      "Ġstat": 2099,
      "Ġmass": 2100,
      "Ġcondition": 2101,
      "ĠAm": 2102,
      "ison": 2103,
      "Ġquick": 2104,
      "Ġfri": 2105,
      "Ġdom": 2106,
      "Ġability": 2107,
      "ued": 2108,
      "Ġphot": 2109,
      "ont": 2110,
      "ann": 2111,
      "put": 2112,
      "Ġred": 2113,
      "Ġground": 2114,
      "roll": 2115,
      "Ġeff": 2116,
      "Ġcollect": 2117,
      "aim": 2118,
      "Ġansw": 2119,
      "ird": 2120,
      "erence": 2121,
      "ĠShe": 2122,
      "Ġsingle": 2123,
      "Ġfrequ": 2124,
      "Ġwind": 2125,
      "Ġessential": 2126,
      "Ġonce": 2127,
      "Ġsound": 2128,
      "Ġwide": 2129,
      "ĠDo": 2130,
      "ands": 2131,
      "Ġadult": 2132,
      "ĠJoh": 2133,
      "Ġonline": 2134,
      "fer": 2135,
      "Ġcut": 2136,
      "Ġfeed": 2137,
      "Ġassociated": 2138,
      "Ġwriting": 2139,
      "NA": 2140,
      "Ġevent": 2141,
      "Ġ14": 2142,
      "Ġfactors": 2143,
      "rect": 2144,
      "Ġmanagement": 2145,
      "plic": 2146,
      ".\"": 2147,
      "hing": 2148,
      "ley": 2149,
      "ĠAust": 2150,
      "Ġactually": 2151,
      "Ġfail": 2152,
      "Ġfield": 2153,
      "Ġspe": 2154,
      "Ġaddress": 2155,
      "Ġmaterials": 2156,
      "Ġcreated": 2157,
      "Ġliving": 2158,
      "ĠSouth": 2159,
      "esc": 2160,
      "Ġweek": 2161,
      "Ġincreased": 2162,
      "Ġcat": 2163,
      "You": 2164,
      "Ġcannot": 2165,
      "Ġwhite": 2166,
      "Ġsurface": 2167,
      "Ġaccording": 2168,
      "Ġbat": 2169,
      "13": 2170,
      "Ġthemselves": 2171,
      "aging": 2172,
      "Ġinit": 2173,
      "rate": 2174,
      "Ġmicro": 2175,
      "fficient": 2176,
      "yn": 2177,
      "Ġlay": 2178,
      "Wh": 2179,
      "Ġtell": 2180,
      "ĠIntern": 2181,
      "Ġanimals": 2182,
      "Ġver": 2183,
      "reme": 2184,
      "earch": 2185,
      "Ġhold": 2186,
      "Ġsize": 2187,
      "Ġ=": 2188,
      "Ġnature": 2189,
      "val": 2190,
      "Ġmeet": 2191,
      "based": 2192,
      "onst": 2193,
      "augh": 2194,
      "Ġevidence": 2195,
      "Ġinj": 2196,
      "Ġstudent": 2197,
      "way": 2198,
      "Ġneeded": 2199,
      "ĠMar": 2200,
      "ĠGen": 2201,
      "Ġdetail": 2202,
      "ĠStud": 2203,
      "sequ": 2204,
      "ournal": 2205,
      "utions": 2206,
      "Ġdoct": 2207,
      "Ġrequired": 2208,
      "Ġnational": 2209,
      "Ġmach": 2210,
      "Ġmedic": 2211,
      "Ġsent": 2212,
      "Ġjob": 2213,
      "Ġparents": 2214,
      "Ġapproach": 2215,
      "Ġrelated": 2216,
      "Ġresearchers": 2217,
      "):": 2218,
      "ensive": 2219,
      "Ġfive": 2220,
      "rict": 2221,
      "Ġpurp": 2222,
      "Ġreading": 2223,
      "Ġglobal": 2224,
      "ĠCar": 2225,
      "ival": 2226,
      "Ġdisord": 2227,
      "Ġprob": 2228,
      "Ġhelps": 2229,
      "Ġpath": 2230,
      "Ġclean": 2231,
      "Ġfish": 2232,
      "icial": 2233,
      "Ġservices": 2234,
      "Ġtherap": 2235,
      "Ġsuff": 2236,
      "Ġbenefits": 2237,
      "overed": 2238,
      "Ġtaken": 2239,
      "Ġsal": 2240,
      "ivil": 2241,
      "Ġpositive": 2242,
      "Ġblack": 2243,
      "Ġsoft": 2244,
      "unt": 2245,
      "To": 2246,
      "Ġpersonal": 2247,
      "astic": 2248,
      "Ġobserv": 2249,
      "ĠAb": 2250,
      "Ġengine": 2251,
      "Ġsafe": 2252,
      "ER": 2253,
      "Ġfamil": 2254,
      "Ġcompany": 2255,
      "Ġassess": 2256,
      "light": 2257,
      "Ġcomplex": 2258,
      "org": 2259,
      "Ġparts": 2260,
      "reg": 2261,
      "ule": 2262,
      "Ġmoney": 2263,
      "ging": 2264,
      "ences": 2265,
      "like": 2266,
      "ump": 2267,
      "Ġtar": 2268,
      "gest": 2269,
      "lying": 2270,
      "urch": 2271,
      "rated": 2272,
      "mber": 2273,
      "Ġcoll": 2274,
      "Ġidea": 2275,
      "ĠDr": 2276,
      "Ġcontent": 2277,
      "aged": 2278,
      "vere": 2279,
      "Ġeconomic": 2280,
      "Ġindividuals": 2281,
      "epend": 2282,
      "ĠAss": 2283,
      "ney": 2284,
      "Ġmaintain": 2285,
      "Ġsam": 2286,
      "Ġmodern": 2287,
      "Ġsun": 2288,
      "ograph": 2289,
      "Ġgreen": 2290,
      "Ġmonths": 2291,
      "Ġann": 2292,
      "Ġ'": 2293,
      "rams": 2294,
      "Ġentire": 2295,
      "Ġemer": 2296,
      "Ġreact": 2297,
      "Ġeasy": 2298,
      "illed": 2299,
      "eter": 2300,
      "Ġdest": 2301,
      "ply": 2302,
      "ccording": 2303,
      "Ġproduce": 2304,
      "Ġmembers": 2305,
      "Ġhistor": 2306,
      "eds": 2307,
      "ĠIndia": 2308,
      "ĠMan": 2309,
      "Ġprovides": 2310,
      "sh": 2311,
      "Al": 2312,
      "ĠPr": 2313,
      "izing": 2314,
      "erous": 2315,
      "acks": 2316,
      "Ġla": 2317,
      "Ġstates": 2318,
      "Ġalmost": 2319,
      "ĠBy": 2320,
      "Ġchemical": 2321,
      "reng": 2322,
      "Ġsite": 2323,
      "Ġreturn": 2324,
      "itud": 2325,
      "Ġstop": 2326,
      "Ġvacc": 2327,
      "iam": 2328,
      "Ġtraining": 2329,
      "Ġnecessary": 2330,
      "aced": 2331,
      "Ġspread": 2332,
      "ronic": 2333,
      "Ġpolitical": 2334,
      "Ġvirus": 2335,
      "__": 2336,
      "ising": 2337,
      "ublic": 2338,
      "ĠAmerica": 2339,
      "Ġanalysis": 2340,
      "Ġtaking": 2341,
      "Ġsociety": 2342,
      "Ġprote": 2343,
      "Ġcauses": 2344,
      "Ġcheck": 2345,
      "21": 2346,
      "hold": 2347,
      "onse": 2348,
      "aily": 2349,
      "Ch": 2350,
      "Ġtemperature": 2351,
      "olic": 2352,
      "Ġitself": 2353,
      "oses": 2354,
      "Ġheat": 2355,
      "Ġthroughout": 2356,
      "ai": 2357,
      "Ġregular": 2358,
      "Ġtalk": 2359,
      "Ġdoc": 2360,
      "Ġincreasing": 2361,
      "Ġcolor": 2362,
      "usion": 2363,
      "Ġpattern": 2364,
      "Ġindustry": 2365,
      "ections": 2366,
      "ender": 2367,
      "Ġvers": 2368,
      "Ġdiagn": 2369,
      "ĠComp": 2370,
      "Ġpopular": 2371,
      "Ġaction": 2372,
      "ĠGe": 2373,
      "Ġut": 2374,
      "Ġlonger": 2375,
      "Ġ13": 2376,
      "Ġhours": 2377,
      "Ġpublished": 2378,
      "Ġarch": 2379,
      "Ġ100": 2380,
      "Ġvide": 2381,
      "Ġconduct": 2382,
      "Ġ198": 2383,
      "ĠWhile": 2384,
      "ystem": 2385,
      "chan": 2386,
      "ma": 2387,
      "Ġfru": 2388,
      "Ġeat": 2389,
      "Ġliter": 2390,
      "ufact": 2391,
      "ively": 2392,
      "Ġbreak": 2393,
      "Ġthought": 2394,
      "Ġfarm": 2395,
      "pro": 2396,
      "ores": 2397,
      "Ġsubst": 2398,
      "itary": 2399,
      "Ġinteract": 2400,
      "Ġlives": 2401,
      "Ġgas": 2402,
      "Ġcame": 2403,
      "utes": 2404,
      "Ġfire": 2405,
      "Ġupon": 2406,
      "yle": 2407,
      "uck": 2408,
      "Ġpriv": 2409,
      "Ġlink": 2410,
      "ĠSoc": 2411,
      "Ġcomputer": 2412,
      "oon": 2413,
      "ĠMay": 2414,
      "anced": 2415,
      "Ġever": 2416,
      "Ġbar": 2417,
      "ront": 2418,
      "Ġce": 2419,
      "Ġtotal": 2420,
      "Ġfoods": 2421,
      "lt": 2422,
      "ened": 2423,
      "urs": 2424,
      "Ġetc": 2425,
      "Ġregard": 2426,
      "Ġarg": 2427,
      "ĠCont": 2428,
      "Ġshows": 2429,
      "ming": 2430,
      "gar": 2431,
      "Ã©": 2432,
      "ĠRep": 2433,
      "ĠAct": 2434,
      "cient": 2435,
      "Ġservice": 2436,
      "ĠEm": 2437,
      "ze": 2438,
      "lor": 2439,
      "Ġhalf": 2440,
      "Ġstructure": 2441,
      "go": 2442,
      "Ġport": 2443,
      "Ġtravel": 2444,
      "Ġmor": 2445,
      "Ġcontact": 2446,
      "hib": 2447,
      "nces": 2448,
      "erve": 2449,
      "ĠCal": 2450,
      "Ġmeaning": 2451,
      "Ġterms": 2452,
      "Ġmethods": 2453,
      "Ġrights": 2454,
      "ĠGu": 2455,
      "Ġsuper": 2456,
      "Ġemot": 2457,
      "Ġrelig": 2458,
      "Ġmeasure": 2459,
      "pid": 2460,
      "iddle": 2461,
      "Ġsepar": 2462,
      "lex": 2463,
      "Ġrepl": 2464,
      "Ġlove": 2465,
      "istics": 2466,
      "ĠNorth": 2467,
      "Ġlif": 2468,
      "ibr": 2469,
      "Ġmatter": 2470,
      "Ġenvironmental": 2471,
      "Ġcaused": 2472,
      "Ġbur": 2473,
      "Ġ50": 2474,
      "Ġensure": 2475,
      "ese": 2476,
      "Ġthing": 2477,
      "ober": 2478,
      "ĠCo": 2479,
      "Ġpoll": 2480,
      "Ġprinc": 2481,
      "Ġbring": 2482,
      "Ġsense": 2483,
      "Ġreview": 2484,
      "eb": 2485,
      "Ġchalleng": 2486,
      "Ġstreng": 2487,
      "ograp": 2488,
      "ĠAfter": 2489,
      "ĠEarth": 2490,
      "rad": 2491,
      "Ġprevious": 2492,
      "Ġdamage": 2493,
      "Ġencoura": 2494,
      "Ġconc": 2495,
      "abet": 2496,
      "ils": 2497,
      "het": 2498,
      "ĠAustral": 2499,
      "Ġste": 2500,
      "abor": 2501,
      "enn": 2502,
      "Ġtarget": 2503,
      "ĠPe": 2504,
      "Ġbehavior": 2505,
      "rown": 2506,
      "Ġdeep": 2507,
      "artment": 2508,
      "Ġsex": 2509,
      "fully": 2510,
      "Ġincludes": 2511,
      "Ġcarbon": 2512,
      "Ġharm": 2513,
      "Ġhab": 2514,
      "Ġface": 2515,
      "ext": 2516,
      "ume": 2517,
      "ES": 2518,
      "ene": 2519,
      "hood": 2520,
      "Ġshown": 2521,
      "ules": 2522,
      "AS": 2523,
      "Ġcompan": 2524,
      "Ġarr": 2525,
      "Ġkids": 2526,
      "Ġslow": 2527,
      "aving": 2528,
      "Ġremov": 2529,
      "Ġidentify": 2530,
      "asc": 2531,
      "Ġbegan": 2532,
      "Ġregion": 2533,
      "ches": 2534,
      "oll": 2535,
      "Ġbal": 2536,
      "inter": 2537,
      "Ġtook": 2538,
      "Ġsimply": 2539,
      "Ġaverage": 2540,
      "itation": 2541,
      "Ġbuilt": 2542,
      "Ġsat": 2543,
      "ricult": 2544,
      "Ġdesigned": 2545,
      "oor": 2546,
      "Ġyet": 2547,
      "Ġelectric": 2548,
      "Ġox": 2549,
      "igure": 2550,
      "Ġvariety": 2551,
      "Ġrecent": 2552,
      "AR": 2553,
      "elling": 2554,
      "icles": 2555,
      "Ġbacter": 2556,
      "Ġgetting": 2557,
      "verse": 2558,
      "fect": 2559,
      "empt": 2560,
      "ancial": 2561,
      "aff": 2562,
      "iction": 2563,
      "Ġresponse": 2564,
      "Ġwebs": 2565,
      "Ġbill": 2566,
      "apan": 2567,
      "ĠYork": 2568,
      "Ġvari": 2569,
      "Ġdeb": 2570,
      "aling": 2571,
      "ĠSu": 2572,
      "rast": 2573,
      "ership": 2574,
      "Ġmanufact": 2575,
      "Ġheav": 2576,
      "Ġcop": 2577,
      "Ġcust": 2578,
      "uel": 2579,
      "Ġoutside": 2580,
      "Ġstandard": 2581,
      "ĠBritish": 2582,
      "Ġdoing": 2583,
      "uge": 2584,
      "ĠPer": 2585,
      "Ġsurv": 2586,
      "Ġwild": 2587,
      "Ġposition": 2588,
      "Ġschools": 2589,
      "ĠYour": 2590,
      "rior": 2591,
      "Ġmusic": 2592,
      "ĠDep": 2593,
      "ript": 2594,
      "Ġissue": 2595,
      "istance": 2596,
      "ropri": 2597,
      "Ġcompon": 2598,
      "aches": 2599,
      "inary": 2600,
      "ĠChina": 2601,
      "Ġled": 2602,
      "Ġtrue": 2603,
      "Ġrespect": 2604,
      "Ġmental": 2605,
      "ĠâĢ¦": 2606,
      "Ġaware": 2607,
      "ĠCanad": 2608,
      "ĠX": 2609,
      "Ġ2020": 2610,
      "Ġnight": 2611,
      "Ġsometimes": 2612,
      "ulations": 2613,
      "Ġ11": 2614,
      "Ġlack": 2615,
      "ows": 2616,
      "iment": 2617,
      "Ġsomeone": 2618,
      "ĠPar": 2619,
      "Ġdiseases": 2620,
      "ĠHis": 2621,
      "Ġ197": 2622,
      "oles": 2623,
      "Ġsix": 2624,
      "Ġuses": 2625,
      "Ġdoesn": 2626,
      "Ġshare": 2627,
      "ises": 2628,
      "set": 2629,
      "Ġimplement": 2630,
      "ĠResearch": 2631,
      "ched": 2632,
      "Ġmovement": 2633,
      "Ġdaily": 2634,
      "irm": 2635,
      "oph": 2636,
      "Ġremain": 2637,
      "Ġ25": 2638,
      "Ġpatient": 2639,
      "Ġnetwork": 2640,
      "Ġsafety": 2641,
      "Ġvit": 2642,
      "room": 2643,
      "Ġgrowing": 2644,
      "eration": 2645,
      "Ġgreater": 2646,
      "Ġcompet": 2647,
      "Ġfem": 2648,
      "Ġclaim": 2649,
      "Ġprovided": 2650,
      "Ġge": 2651,
      "Ġsust": 2652,
      "Ġculture": 2653,
      "Ġattention": 2654,
      "Ġserious": 2655,
      "Ġinvolved": 2656,
      "dom": 2657,
      "Ġextreme": 2658,
      "Ġreported": 2659,
      "osition": 2660,
      "Ġdeveloping": 2661,
      "know": 2662,
      "Ġveget": 2663,
      "ana": 2664,
      "Ġvisit": 2665,
      "ony": 2666,
      "ades": 2667,
      "lands": 2668,
      "Ġhyd": 2669,
      "60": 2670,
      "minist": 2671,
      "Ġparticularly": 2672,
      "Ġappl": 2673,
      "Ġbelieve": 2674,
      "Ġinteg": 2675,
      "estern": 2676,
      "osing": 2677,
      "Ġthreat": 2678,
      "osure": 2679,
      "Ġevents": 2680,
      "ĠJohn": 2681,
      "Ġexc": 2682,
      "Ġpsych": 2683,
      "Ġprep": 2684,
      "Ġviol": 2685,
      "Ġrelative": 2686,
      "Ġsources": 2687,
      "Ġperformance": 2688,
      "wh": 2689,
      "Ġ/": 2690,
      "Ġple": 2691,
      "Ġwood": 2692,
      "Ġoriginal": 2693,
      "Ġnormal": 2694,
      "ĠHist": 2695,
      "Ġgard": 2696,
      "ĠState": 2697,
      "mb": 2698,
      "âĢĿ.": 2699,
      "Ġeasily": 2700,
      "Ġaccept": 2701,
      "iot": 2702,
      "Ġpoor": 2703,
      "ength": 2704,
      "Ġlooking": 2705,
      "imately": 2706,
      "arily": 2707,
      "ban": 2708,
      "Ġforms": 2709,
      "Ġir": 2710,
      "ĠSchool": 2711,
      "Ġdecre": 2712,
      "Ġnegative": 2713,
      "Ġmechan": 2714,
      "Ġbasic": 2715,
      "Ġrev": 2716,
      "term": 2717,
      "Ġtherefore": 2718,
      "Ġteachers": 2719,
      "Ġcontinue": 2720,
      "Ġprec": 2721,
      "Ġbab": 2722,
      "ying": 2723,
      "ster": 2724,
      "Ġcorrect": 2725,
      "co": 2726,
      "ctions": 2727,
      "joy": 2728,
      "ĠÂ": 2729,
      "Ġtakes": 2730,
      "Ġrefer": 2731,
      "Ġanimal": 2732,
      "my": 2733,
      "Ġmedia": 2734,
      "Ġideas": 2735,
      "Ġdrink": 2736,
      "AT": 2737,
      "ĠPres": 2738,
      "Ġdifference": 2739,
      "Ġinfection": 2740,
      "ĠNo": 2741,
      "ĠMany": 2742,
      "aries": 2743,
      "Ġtools": 2744,
      "Ġallows": 2745,
      "ĠJapan": 2746,
      "Ġacid": 2747,
      "Ġwritten": 2748,
      "Ġseem": 2749,
      "duc": 2750,
      "Ġpict": 2751,
      "Ġ,": 2752,
      "Ġearth": 2753,
      "ties": 2754,
      "Ġorigin": 2755,
      "Ġteeth": 2756,
      "Ġdefin": 2757,
      "Ġcompanies": 2758,
      "Ġbreat": 2759,
      "Ġoffer": 2760,
      "asons": 2761,
      "But": 2762,
      "coh": 2763,
      "rial": 2764,
      "Ġcover": 2765,
      "Ġap": 2766,
      "Ġgenerally": 2767,
      "ancy": 2768,
      "Ġdang": 2769,
      "erg": 2770,
      "iency": 2771,
      "\".": 2772,
      "Ġstarted": 2773,
      "Ġstra": 2774,
      "Ġdraw": 2775,
      "Ġachieve": 2776,
      "Ġinside": 2777,
      "issions": 2778,
      "amed": 2779,
      "Ġbra": 2780,
      "rought": 2781,
      "Ġmultiple": 2782,
      "Ġexercise": 2783,
      "Ġ|": 2784,
      "Ġemb": 2785,
      "Ġconsist": 2786,
      "itor": 2787,
      "Ġaff": 2788,
      "abetes": 2789,
      "Ġeval": 2790,
      "Ġinstead": 2791,
      "Ġminim": 2792,
      ".)": 2793,
      "Ġmess": 2794,
      "VID": 2795,
      "40": 2796,
      "Ġinternational": 2797,
      "hel": 2798,
      "ĠInt": 2799,
      "ĠMe": 2800,
      "Ġbirth": 2801,
      "new": 2802,
      "ĠScience": 2803,
      "nov": 2804,
      "ĠPre": 2805,
      "Ġspeed": 2806,
      "Ġcompared": 2807,
      "ister": 2808,
      "ĠApp": 2809,
      "Ġimage": 2810,
      "Ġful": 2811,
      "rim": 2812,
      "Ġextra": 2813,
      "Ġspeak": 2814,
      "gn": 2815,
      "ads": 2816,
      "Ġquickly": 2817,
      "atives": 2818,
      "Ġproduced": 2819,
      "vention": 2820,
      ",\"": 2821,
      "25": 2822,
      "Ġcoun": 2823,
      "Ġseries": 2824,
      "Ġcommunities": 2825,
      "Ġprint": 2826,
      "Ġtraditional": 2827,
      "Ġincluded": 2828,
      "Ġprimary": 2829,
      "Ġenjoy": 2830,
      "Ġlate": 2831,
      "Ġdry": 2832,
      "ĠInstit": 2833,
      "Ġfinancial": 2834,
      "Ġhighly": 2835,
      "Ġprograms": 2836,
      "Ġtowards": 2837,
      "ha": 2838,
      "Ġhumans": 2839,
      "Ġforest": 2840,
      "idge": 2841,
      "Ġstay": 2842,
      "Ġbooks": 2843,
      "ĠMore": 2844,
      "cies": 2845,
      "vant": 2846,
      "Ġwall": 2847,
      "ĠKing": 2848,
      "Ġaim": 2849,
      "Ġscientists": 2850,
      "Ġeye": 2851,
      "Ġconcent": 2852,
      "isions": 2853,
      "Ġtax": 2854,
      "ederal": 2855,
      "Ġnumbers": 2856,
      "Ġtend": 2857,
      "Ġdemonst": 2858,
      "ĠMin": 2859,
      "ension": 2860,
      "Ġanaly": 2861,
      "Ġcustom": 2862,
      "Ġeth": 2863,
      "Ġattack": 2864,
      "Ġsqu": 2865,
      "ĠNe": 2866,
      "Ġsolution": 2867,
      "Ġfa": 2868,
      "ights": 2869,
      "ĠEuropean": 2870,
      "Ġquite": 2871,
      "Ġcit": 2872,
      "ography": 2873,
      "Ġmagn": 2874,
      "Ġactive": 2875,
      "vey": 2876,
      "Ġaspect": 2877,
      "Ġselect": 2878,
      "esus": 2879,
      "ecause": 2880,
      "irit": 2881,
      "fort": 2882,
      "Ġwalk": 2883,
      "Ġdou": 2884,
      "ground": 2885,
      "Ġprogress": 2886,
      "Ġunique": 2887,
      "Ġtur": 2888,
      "ĠMost": 2889,
      "Ġdispl": 2890,
      "Ġclin": 2891,
      "Ġbad": 2892,
      "Ġdigital": 2893,
      "Ġrout": 2894,
      "Ġindepend": 2895,
      "Ġcra": 2896,
      "oes": 2897,
      "where": 2898,
      "Ġwrite": 2899,
      "Ġsevere": 2900,
      "Ġprobably": 2901,
      "ribution": 2902,
      "Ġattempt": 2903,
      "Ġaud": 2904,
      "Ġdirectly": 2905,
      "Ġlog": 2906,
      "ounds": 2907,
      "Ġcritical": 2908,
      "overy": 2909,
      "Ġec": 2910,
      "rs": 2911,
      "Ġvideo": 2912,
      "Ġbit": 2913,
      "Ġappropri": 2914,
      "Ġtree": 2915,
      "ided": 2916,
      "rench": 2917,
      "ached": 2918,
      "Ġpolicy": 2919,
      "ĠSec": 2920,
      "Ġpoints": 2921,
      "cohol": 2922,
      "ĠOf": 2923,
      "Ġtiss": 2924,
      "Ġcamp": 2925,
      "mon": 2926,
      "Ġsold": 2927,
      "ĠAg": 2928,
      "Ġlat": 2929,
      "ift": 2930,
      "itude": 2931,
      "Ġyourself": 2932,
      "Ġfav": 2933,
      "oly": 2934,
      "Ġvalues": 2935,
      "rition": 2936,
      "Ġfeet": 2937,
      "erson": 2938,
      "Ġuseful": 2939,
      "Ġsustain": 2940,
      "Ġadded": 2941,
      "IS": 2942,
      "Ġfram": 2943,
      "Ġsea": 2944,
      "rie": 2945,
      "Ġsituation": 2946,
      "useum": 2947,
      "uth": 2948,
      "ĠCons": 2949,
      "Ġthinking": 2950,
      "Ġimmedi": 2951,
      "ĠPart": 2952,
      "gency": 2953,
      "Ġtrees": 2954,
      "Ġdetermine": 2955,
      "na": 2956,
      "Ġsil": 2957,
      "Ġones": 2958,
      "Ġreflect": 2959,
      "www": 2960,
      "Ġstrateg": 2961,
      "rogen": 2962,
      "Ġaltern": 2963,
      "yl": 2964,
      "Ġthus": 2965,
      "On": 2966,
      "Ġsecurity": 2967,
      "Ġtransport": 2968,
      "Ġbehind": 2969,
      "Ġcommit": 2970,
      "den": 2971,
      "Ġreve": 2972,
      "Ġforce": 2973,
      "iques": 2974,
      "Ġanswer": 2975,
      "Ġhttps": 2976,
      "Ġsn": 2977,
      "inks": 2978,
      "ĠBo": 2979,
      "Ġprior": 2980,
      "ĠCOVID": 2981,
      "Ġadditional": 2982,
      "cell": 2983,
      "Ġsugar": 2984,
      "ĠQu": 2985,
      "ellow": 2986,
      "Ġfoot": 2987,
      "Ġinvestig": 2988,
      "Ġcross": 2989,
      "Ġcard": 2990,
      "Ġadults": 2991,
      "Ġhost": 2992,
      "Ġlarger": 2993,
      "ching": 2994,
      "Ġpage": 2995,
      "Ġmother": 2996,
      "uries": 2997,
      "Ġleading": 2998,
      "Ġwaste": 2999,
      "Ġpurpose": 3000,
      "ls": 3001,
      "Ġ24": 3002,
      "So": 3003,
      "ief": 3004,
      "Ġago": 3005,
      "Ġteaching": 3006,
      "Ġinstit": 3007,
      "Ġscientific": 3008,
      "Ġelements": 3009,
      "Ġsoftware": 3010,
      "arr": 3011,
      "umb": 3012,
      "ipment": 3013,
      "Ġsoon": 3014,
      "Ġcivil": 3015,
      "Ġblock": 3016,
      "aly": 3017,
      "itis": 3018,
      "Ġproced": 3019,
      "Ġaccur": 3020,
      "Ġestim": 3021,
      "Ġexpect": 3022,
      "ĠII": 3023,
      "ĠJu": 3024,
      "mar": 3025,
      "Ġminutes": 3026,
      "Ġdoctor": 3027,
      "ĠUs": 3028,
      "Ġleaves": 3029,
      "Ġexpress": 3030,
      "Ġbroad": 3031,
      "ror": 3032,
      "ĠAc": 3033,
      "bre": 3034,
      "cial": 3035,
      "Ġhands": 3036,
      "Ġfeatures": 3037,
      "IN": 3038,
      "Ġveh": 3039,
      "ervation": 3040,
      "One": 3041,
      "ologies": 3042,
      "ĠChild": 3043,
      "oming": 3044,
      "ĠWill": 3045,
      "Ġrequires": 3046,
      "ĠJan": 3047,
      "Ġthird": 3048,
      "haps": 3049,
      "hest": 3050,
      "Ġlimited": 3051,
      "ĠEduc": 3052,
      "ĠAfrica": 3053,
      "Ġeating": 3054,
      "Ġ40": 3055,
      "ĠNot": 3056,
      "Ġimportance": 3057,
      "elt": 3058,
      "fl": 3059,
      "omet": 3060,
      "Ġfamilies": 3061,
      "ĠKe": 3062,
      "lear": 3063,
      "ĠJesus": 3064,
      "ixed": 3065,
      "Ġwebsite": 3066,
      "Ġapplication": 3067,
      "Ġwarm": 3068,
      "ĠIndian": 3069,
      "Ġquant": 3070,
      "Ġworkers": 3071,
      "Ġchoose": 3072,
      "Ġsupply": 3073,
      "ops": 3074,
      "à¤": 3075,
      "Ġdocument": 3076,
      "Ġ2018": 3077,
      "Ġhor": 3078,
      "Ġnation": 3079,
      "Ġcapt": 3080,
      "ino": 3081,
      "Ġtypically": 3082,
      "ulate": 3083,
      "Ġanx": 3084,
      "âĢ¢": 3085,
      "Ġeyes": 3086,
      "Ġreach": 3087,
      "Ġbehavi": 3088,
      "Ġcapac": 3089,
      "Ġdark": 3090,
      "Ġthous": 3091,
      "Ġearl": 3092,
      "ipl": 3093,
      "ĠHar": 3094,
      "Ġprocesses": 3095,
      "Ġ2016": 3096,
      "ĠCor": 3097,
      "Ġhot": 3098,
      "Ġpregn": 3099,
      "ĠLear": 3100,
      "ider": 3101,
      "ĠAug": 3102,
      "Ġstru": 3103,
      "ĠJew": 3104,
      "ĠRec": 3105,
      "Ġfight": 3106,
      "Ġtesting": 3107,
      "Ġbenefit": 3108,
      "Ġsus": 3109,
      "Ġbecomes": 3110,
      "Ġhar": 3111,
      "Ġweeks": 3112,
      "rig": 3113,
      "anks": 3114,
      "Ġmom": 3115,
      "Ġ2017": 3116,
      "Ġbacteria": 3117,
      "Ġprotein": 3118,
      "Ġegg": 3119,
      "ĠHere": 3120,
      "22": 3121,
      "Ġancient": 3122,
      "ĠSm": 3123,
      "Ġinfluence": 3124,
      "Ġeveryone": 3125,
      "Ġcarry": 3126,
      "iers": 3127,
      "Ġfast": 3128,
      "come": 3129,
      "Ġrates": 3130,
      "bol": 3131,
      "uary": 3132,
      "Ġmachine": 3133,
      "yond": 3134,
      "Ġprotection": 3135,
      "Ġtherapy": 3136,
      "Ġprofessional": 3137,
      "Ġsolar": 3138,
      "Ġmilitary": 3139,
      "ĠGerman": 3140,
      "Ġalthough": 3141,
      "Ġgoal": 3142,
      "Ġagricult": 3143,
      "Ġcontribut": 3144,
      "wor": 3145,
      "Ġexact": 3146,
      "ĠCount": 3147,
      "Ġfront": 3148,
      "Ġautom": 3149,
      "Ġestablished": 3150,
      "Ġdevices": 3151,
      "ĠOther": 3152,
      "ding": 3153,
      "oke": 3154,
      "isms": 3155,
      "Ġfriends": 3156,
      "ĠEd": 3157,
      "odies": 3158,
      "rag": 3159,
      "bor": 3160,
      "Ġcapital": 3161,
      "Ġdiv": 3162,
      "equ": 3163,
      "Ġadapt": 3164,
      "Ġcolon": 3165,
      "inese": 3166,
      "Ġcred": 3167,
      "Ġcentral": 3168,
      "Ġbeginning": 3169,
      "Ġobtain": 3170,
      "Ġeverything": 3171,
      "pril": 3172,
      "omb": 3173,
      "Ġnews": 3174,
      "Ġheld": 3175,
      "Ġi": 3176,
      "ĠAlthough": 3177,
      "Ġrecommend": 3178,
      "ilos": 3179,
      "ĠArt": 3180,
      "Ġrespond": 3181,
      "ceed": 3182,
      "Ġdiabetes": 3183,
      "Ġtheory": 3184,
      "Ġrare": 3185,
      "iber": 3186,
      "Ġtechniques": 3187,
      "Ġult": 3188,
      "xim": 3189,
      "Ġlength": 3190,
      "Ġplaces": 3191,
      "att": 3192,
      "Ġtri": 3193,
      "itable": 3194,
      "Ġmention": 3195,
      "ĠAnt": 3196,
      "ĠReg": 3197,
      "Ġadvant": 3198,
      "imin": 3199,
      "Ġpack": 3200,
      "Ġtests": 3201,
      "Ġelse": 3202,
      "itect": 3203,
      "Ġdecision": 3204,
      "Ġ2015": 3205,
      "Ġequipment": 3206,
      "Ġdemand": 3207,
      "Ġproperty": 3208,
      "Ġaffected": 3209,
      "Ġcosts": 3210,
      "Ġcreating": 3211,
      "iar": 3212,
      "Ġbeaut": 3213,
      "Ġreasons": 3214,
      "iece": 3215,
      "Ġwa": 3216,
      "ĠMarch": 3217,
      "Ġinstall": 3218,
      "Ġ2019": 3219,
      "ille": 3220,
      "Ġtown": 3221,
      "ĠEl": 3222,
      "Ġgives": 3223,
      "He": 3224,
      "Ġsou": 3225,
      "cles": 3226,
      "idents": 3227,
      "Ġlargest": 3228,
      "Ġpractices": 3229,
      "ĠWest": 3230,
      "ĠGl": 3231,
      "Ġbase": 3232,
      "ĠInternational": 3233,
      "istry": 3234,
      "ius": 3235,
      "Ġlabor": 3236,
      "While": 3237,
      "pe": 3238,
      "Ġtable": 3239,
      "Ġimmune": 3240,
      "hens": 3241,
      "Ġdisp": 3242,
      "Ġcontains": 3243,
      "Ġteacher": 3244,
      "formation": 3245,
      "Ġdecl": 3246,
      "Ġast": 3247,
      "Ġprojects": 3248,
      "inct": 3249,
      "Ġstage": 3250,
      "OR": 3251,
      "Ġcommunication": 3252,
      "estic": 3253,
      "Ġwent": 3254,
      "Ġep": 3255,
      "Ġagree": 3256,
      "izes": 3257,
      "Ġgot": 3258,
      "oud": 3259,
      "Ġpan": 3260,
      "Ġconnect": 3261,
      "Ġseek": 3262,
      "wise": 3263,
      "ran": 3264,
      "Ġsearch": 3265,
      "asks": 3266,
      "Ġlost": 3267,
      "ĠInstitute": 3268,
      "Ġroom": 3269,
      "Ġfit": 3270,
      "Ġx": 3271,
      "undred": 3272,
      "Ġprivate": 3273,
      "cean": 3274,
      "vest": 3275,
      "Ġexposure": 3276,
      "Ġcrop": 3277,
      "Ġsurround": 3278,
      "ON": 3279,
      "Ġweb": 3280,
      "cil": 3281,
      "Ġseason": 3282,
      "ĠFrench": 3283,
      "Ġanti": 3284,
      "Ġisn": 3285,
      "back": 3286,
      "ĠRuss": 3287,
      "Ġeconomy": 3288,
      "Ġexamples": 3289,
      "Ġcultural": 3290,
      "These": 3291,
      "cks": 3292,
      "ĠGree": 3293,
      "Ġoverall": 3294,
      "uk": 3295,
      "Ġmis": 3296,
      "Ġcalcul": 3297,
      "Ġconsequ": 3298,
      "ula": 3299,
      "Ġstrength": 3300,
      "uous": 3301,
      "Ġalcohol": 3302,
      "Ġdeal": 3303,
      "Ġapplications": 3304,
      "uman": 3305,
      "And": 3306,
      "80": 3307,
      "Ġmeasures": 3308,
      "resh": 3309,
      "ĠFrom": 3310,
      "Ġgain": 3311,
      "ĠOct": 3312,
      "bit": 3313,
      "Ġolder": 3314,
      "Ġcommonly": 3315,
      "Ġappropriate": 3316,
      "Ġang": 3317,
      "lection": 3318,
      "Ġperfect": 3319,
      "ĠFirst": 3320,
      "Ġconstruction": 3321,
      "Ġcele": 3322,
      "Ġlaws": 3323,
      "ees": 3324,
      "ogen": 3325,
      "ĠAfrican": 3326,
      "Ġcold": 3327,
      "Ġpet": 3328,
      "Ġopportunity": 3329,
      "Ġadop": 3330,
      "pper": 3331,
      "Ġadminist": 3332,
      "ription": 3333,
      "Ġscreen": 3334,
      "Ġnutri": 3335,
      "IC": 3336,
      "At": 3337,
      "used": 3338,
      "Ġguid": 3339,
      "Ġlegal": 3340,
      "Ġessay": 3341,
      "ĠOur": 3342,
      "ĠJune": 3343,
      "aught": 3344,
      "med": 3345,
      "Ġtox": 3346,
      "iforn": 3347,
      "ĠTra": 3348,
      "ĠHer": 3349,
      "just": 3350,
      "Ġlocated": 3351,
      "Ġanything": 3352,
      "Ġhabit": 3353,
      "Ġbasis": 3354,
      "Ġenh": 3355,
      "ros": 3356,
      "Ġimages": 3357,
      "ĠJournal": 3358,
      "Ġfear": 3359,
      "vert": 3360,
      "Ġ21": 3361,
      "Ġofficial": 3362,
      "sect": 3363,
      "Ġdead": 3364,
      "Ġfruit": 3365,
      "Ġswe": 3366,
      "ĠUK": 3367,
      "Ġdescribed": 3368,
      "Ġsummer": 3369,
      "irus": 3370,
      "Ġseems": 3371,
      "With": 3372,
      "ĠEven": 3373,
      "Ġcitiz": 3374,
      "Ġjo": 3375,
      "ields": 3376,
      "ners": 3377,
      "raft": 3378,
      "Ġremains": 3379,
      "izations": 3380,
      "ĠChinese": 3381,
      "24": 3382,
      "Ġplastic": 3383,
      "Ġsect": 3384,
      "Ġmodels": 3385,
      "Ġmemory": 3386,
      "Ġvia": 3387,
      "ashing": 3388,
      "rote": 3389,
      "Ġbott": 3390,
      "ests": 3391,
      "Ġtrial": 3392,
      "ĠDay": 3393,
      "Ġvirt": 3394,
      "Ġproviding": 3395,
      "Ġinterp": 3396,
      "Ġ2014": 3397,
      "Ġrapid": 3398,
      "Ġcool": 3399,
      "Ġoccurs": 3400,
      "Ġjud": 3401,
      "Ġsigns": 3402,
      "Ġcommunic": 3403,
      "right": 3404,
      "Ġbrought": 3405,
      "illing": 3406,
      "Ġnearly": 3407,
      "Ġimag": 3408,
      "Ġcontroll": 3409,
      "Ġ196": 3410,
      "ĠJuly": 3411,
      "Ġvisual": 3412,
      "Ġcru": 3413,
      "Ġcompletely": 3414,
      "ĠBlack": 3415,
      "enge": 3416,
      "Ġtooth": 3417,
      "ĠMus": 3418,
      "Ġgoes": 3419,
      "Ġresponsible": 3420,
      "load": 3421,
      "Ġscale": 3422,
      "Ġhosp": 3423,
      "ĠAccording": 3424,
      "ĠMy": 3425,
      "Ġtrade": 3426,
      "ĠCenter": 3427,
      "rael": 3428,
      "ellig": 3429,
      "Ġmount": 3430,
      "Ġtrying": 3431,
      "Ġreceive": 3432,
      "ĠDis": 3433,
      "care": 3434,
      "Ġcateg": 3435,
      "Ġ194": 3436,
      "iable": 3437,
      "Ġbirds": 3438,
      "Ġcurrently": 3439,
      "Ex": 3440,
      "Ġdepend": 3441,
      "arian": 3442,
      "Ġexcept": 3443,
      "Ġchallenges": 3444,
      "Ġpurch": 3445,
      "ĠSw": 3446,
      "Ġsection": 3447,
      "Ġfinal": 3448,
      "Ġunc": 3449,
      "Ġsteps": 3450,
      "Ġshape": 3451,
      "ulated": 3452,
      "AN": 3453,
      "Ġalone": 3454,
      "ĠApril": 3455,
      "Ġjoint": 3456,
      "ĠAustralia": 3457,
      "23": 3458,
      "Ġelectr": 3459,
      "ios": 3460,
      "Ġtransl": 3461,
      "Ġmal": 3462,
      "ĠBar": 3463,
      "Ġobjects": 3464,
      "ham": 3465,
      "Ġconstant": 3466,
      "Ġhope": 3467,
      "time": 3468,
      "ype": 3469,
      "Ġdevice": 3470,
      "AC": 3471,
      "Ġinsp": 3472,
      "ĠAugust": 3473,
      "Ġcou": 3474,
      "Ġsites": 3475,
      "Ġconsumption": 3476,
      "ĠCaliforn": 3477,
      "Ġgarden": 3478,
      "Ġder": 3479,
      "Ġmouth": 3480,
      "ocr": 3481,
      "Ġcam": 3482,
      "ptember": 3483,
      "Ġorganization": 3484,
      "Ġopportunities": 3485,
      "ĠGra": 3486,
      "aste": 3487,
      "Ġsmaller": 3488,
      "Ġund": 3489,
      "Ġexplain": 3490,
      "ĠMon": 3491,
      "life": 3492,
      "iles": 3493,
      "Ġwon": 3494,
      "Ġhundred": 3495,
      "Ġfollowed": 3496,
      "Ġconflic": 3497,
      "Ġreceived": 3498,
      "Ġestablish": 3499,
      "Ġdisorder": 3500,
      "ĠCanada": 3501,
      "Ġinnov": 3502,
      "Ġgame": 3503,
      "ĠDepartment": 3504,
      "thern": 3505,
      "eal": 3506,
      "Ġlines": 3507,
      "ĠChar": 3508,
      "ĠTw": 3509,
      "Ġbaby": 3510,
      "olar": 3511,
      "hern": 3512,
      "Ġinstru": 3513,
      "Ġdifferences": 3514,
      "Ġ2010": 3515,
      "Ġanxiety": 3516,
      "Ġmiddle": 3517,
      "Ġvict": 3518,
      "Ġrat": 3519,
      "Ġpoly": 3520,
      "Ġball": 3521,
      "oday": 3522,
      "Ġefforts": 3523,
      "ĠHistory": 3524,
      "rees": 3525,
      "Ġexpected": 3526,
      "Ġrise": 3527,
      "ED": 3528,
      "ĠFl": 3529,
      "Ġapplied": 3530,
      "Ġasked": 3531,
      "ĠIS": 3532,
      "Ġleave": 3533,
      "Ġmig": 3534,
      "Ġwhose": 3535,
      "Ġord": 3536,
      "Ġrules": 3537,
      "Ġdegree": 3538,
      "Ġmob": 3539,
      "iples": 3540,
      "Ġbeyond": 3541,
      "iter": 3542,
      "Ġuser": 3543,
      "uments": 3544,
      "ribute": 3545,
      "ĠAmericans": 3546,
      "Ġten": 3547,
      "âĢĿ,": 3548,
      "isation": 3549,
      "Ġproperties": 3550,
      "Ġactions": 3551,
      "ĠAssoci": 3552,
      "Ġpen": 3553,
      "Ġtold": 3554,
      "Ġrock": 3555,
      "Ġincreases": 3556,
      "ĠAre": 3557,
      "Ġborn": 3558,
      "year": 3559,
      "Ġhous": 3560,
      "Ġcontext": 3561,
      "Ġdrugs": 3562,
      "mission": 3563,
      "ĠServ": 3564,
      "Ġtou": 3565,
      "ara": 3566,
      "Ġrecently": 3567,
      "Ġstrugg": 3568,
      "lim": 3569,
      "Ġusers": 3570,
      "Ġmid": 3571,
      "ygen": 3572,
      "ensity": 3573,
      "Ġcapacity": 3574,
      "head": 3575,
      "Ġillness": 3576,
      "Ġreduced": 3577,
      "Ġsett": 3578,
      "Ġtopic": 3579,
      "Ġcook": 3580,
      "Ġenter": 3581,
      "Ġstri": 3582,
      "ĠDevelop": 3583,
      "Some": 3584,
      "ĠSim": 3585,
      "Ġbul": 3586,
      "Ġice": 3587,
      "Ġdepression": 3588,
      "Äģ": 3589,
      "ĠEngland": 3590,
      "Ġ2012": 3591,
      "Ġrich": 3592,
      "Ġstandards": 3593,
      "ĠRed": 3594,
      "ĠMod": 3595,
      "Ġmiss": 3596,
      "water": 3597,
      "Ġpredict": 3598,
      "Ġidentified": 3599,
      "reet": 3600,
      "Ġroot": 3601,
      "ĠInst": 3602,
      "Ġing": 3603,
      "ĠFin": 3604,
      "Ġplanet": 3605,
      "Ġcode": 3606,
      "omy": 3607,
      "Ġwond": 3608,
      "Ġteach": 3609,
      "ford": 3610,
      "Ġcompar": 3611,
      "Ġgradu": 3612,
      "Ġlocation": 3613,
      "Ġinteresting": 3614,
      "Ġmole": 3615,
      "Ġcry": 3616,
      "Ġcollection": 3617,
      "orthern": 3618,
      "Ġcenter": 3619,
      "Ġacqu": 3620,
      "ibrary": 3621,
      "ĠCalifornia": 3622,
      "ĠTechn": 3623,
      "Ġantib": 3624,
      "Ġbalance": 3625,
      "Ġnothing": 3626,
      "Ġremember": 3627,
      "Ġfather": 3628,
      "ĠFeb": 3629,
      "Ġ:": 3630,
      "ibly": 3631,
      "Ġabsor": 3632,
      "ĠEducation": 3633,
      "Ġguide": 3634,
      "Ġstaff": 3635,
      "ĠRet": 3636,
      "ĠIsrael": 3637,
      "amic": 3638,
      "force": 3639,
      "Ġsitu": 3640,
      "urg": 3641,
      "By": 3642,
      "Ġoptions": 3643,
      "wide": 3644,
      "ĠRead": 3645,
      "Ġ#": 3646,
      "rick": 3647,
      "book": 3648,
      "Ġrain": 3649,
      "uff": 3650,
      "airs": 3651,
      "Ġwoman": 3652,
      "Ġemissions": 3653,
      "Ġplanning": 3654,
      "Ġcoast": 3655,
      "Ġnote": 3656,
      "Ġsuccessful": 3657,
      "rec": 3658,
      "Ġpow": 3659,
      "related": 3660,
      "Ġchoice": 3661,
      "Ġpatterns": 3662,
      "Ġeffic": 3663,
      "Ġlimit": 3664,
      "abilities": 3665,
      "Ġtrack": 3666,
      "Ġvision": 3667,
      "uro": 3668,
      "iate": 3669,
      "Ġstrategies": 3670,
      "Ġ2013": 3671,
      "Ġpowerful": 3672,
      "Ġhorm": 3673,
      "Ġmuscle": 3674,
      "ĠMc": 3675,
      "pective": 3676,
      "ondon": 3677,
      "ĠPark": 3678,
      "Ġfuel": 3679,
      "Ġtit": 3680,
      "Ġassign": 3681,
      "odes": 3682,
      "ought": 3683,
      "Ġpresence": 3684,
      "Ġeffort": 3685,
      "ament": 3686,
      "Ġweather": 3687,
      "Ġspirit": 3688,
      "tery": 3689,
      "Ġcomponents": 3690,
      "27": 3691,
      "Ġefficient": 3692,
      "Ġsouth": 3693,
      "ira": 3694,
      "ĠSystem": 3695,
      "Ġacad": 3696,
      "Ġmajority": 3697,
      "Ġhyp": 3698,
      "Ġroad": 3699,
      "ica": 3700,
      "rates": 3701,
      "ĠChristian": 3702,
      "Ġplaced": 3703,
      "Ġtask": 3704,
      "ĠProg": 3705,
      "ĠTrans": 3706,
      "sec": 3707,
      "Ġdied": 3708,
      "iring": 3709,
      "Ġsequ": 3710,
      "Ġrob": 3711,
      "ĠInc": 3712,
      "Ġoptim": 3713,
      "ĠGreat": 3714,
      "Ġworth": 3715,
      "hemat": 3716,
      "Ġfully": 3717,
      "Ġstim": 3718,
      "ĠBra": 3719,
      "Ġprice": 3720,
      "Ġfactor": 3721,
      "Ġdate": 3722,
      "Ġhon": 3723,
      "ĠThen": 3724,
      "Ġexperiences": 3725,
      "cember": 3726,
      "Ġ60": 3727,
      "ĠPress": 3728,
      "Ġnuc": 3729,
      "Ġfemale": 3730,
      "Ġhappen": 3731,
      "orage": 3732,
      "Ġpiece": 3733,
      "ĠDuring": 3734,
      "Ġitems": 3735,
      "see": 3736,
      "Ġasse": 3737,
      "ulum": 3738,
      "Ġemp": 3739,
      "ĠEast": 3740,
      "Ġhistorical": 3741,
      "uit": 3742,
      "iful": 3743,
      "ĠOctober": 3744,
      "Ġsaw": 3745,
      "Ġcoming": 3746,
      "Ġneigh": 3747,
      "Ġnorth": 3748,
      "Ġoffers": 3749,
      "que": 3750,
      "Ġconvers": 3751,
      "more": 3752,
      "Ġhuge": 3753,
      "ĠPeople": 3754,
      "ĠSeptember": 3755,
      "Ġphilos": 3756,
      "ĠArch": 3757,
      "Ġshowed": 3758,
      "Ġbillion": 3759,
      "Ġalg": 3760,
      "Ġmoment": 3761,
      "Ġwinter": 3762,
      "Ġstories": 3763,
      "Ġmoving": 3764,
      "ĠJanuary": 3765,
      "Ġshall": 3766,
      "EN": 3767,
      "IT": 3768,
      "PA": 3769,
      "mosp": 3770,
      "Ġmember": 3771,
      "Ġpromot": 3772,
      "Ġevalu": 3773,
      "inated": 3774,
      "Ġcontract": 3775,
      "Ġmetal": 3776,
      "Ġfresh": 3777,
      "Ġinstance": 3778,
      "Ġeasier": 3779,
      "ocks": 3780,
      "ĠHigh": 3781,
      "Ġsymbol": 3782,
      "ĠGovern": 3783,
      "Ġsolutions": 3784,
      "Ġarchitect": 3785,
      "craft": 3786,
      "ĠLaw": 3787,
      "aled": 3788,
      "Ġgiving": 3789,
      "ternal": 3790,
      "bal": 3791,
      "Ġexisting": 3792,
      "Ġbed": 3793,
      "Ġexcess": 3794,
      "Ġfert": 3795,
      "ĠRoman": 3796,
      "known": 3797,
      "ĠPresident": 3798,
      "era": 3799,
      "icip": 3800,
      "Ġreligious": 3801,
      "Ġtechnologies": 3802,
      "ovember": 3803,
      "eech": 3804,
      "oration": 3805,
      "26": 3806,
      "Ġforward": 3807,
      "Ġgender": 3808,
      "Ġcommerc": 3809,
      "Ġsignificantly": 3810,
      "Ġrule": 3811,
      "29": 3812,
      "gery": 3813,
      "Ġiron": 3814,
      "Ġextremely": 3815,
      "Ġallowed": 3816,
      "Ġhimself": 3817,
      "Ġincor": 3818,
      "igen": 3819,
      "Ġassist": 3820,
      "Ġrequirements": 3821,
      "anish": 3822,
      "Ġunit": 3823,
      "ĠRiver": 3824,
      "Be": 3825,
      "Ġexec": 3826,
      "Ġlaun": 3827,
      "Ġmaxim": 3828,
      "bl": 3829,
      "Ġgoals": 3830,
      "Ġrisks": 3831,
      "do": 3832,
      "Ġapply": 3833,
      "Ġutil": 3834,
      "ĠSince": 3835,
      "cious": 3836,
      "ĠSch": 3837,
      "ruary": 3838,
      "ĠAlso": 3839,
      "Ġdestro": 3840,
      "erate": 3841,
      "iest": 3842,
      "Ġ23": 3843,
      "Ġclassroom": 3844,
      "199": 3845,
      "ĠCity": 3846,
      "ĠDav": 3847,
      "apter": 3848,
      "ico": 3849,
      "ĠWater": 3850,
      "Ġchronic": 3851,
      "Ġ2011": 3852,
      "Ġurban": 3853,
      "Ġfunctions": 3854,
      "rief": 3855,
      "Ġdisorders": 3856,
      "Ġcollabor": 3857,
      "ĠUse": 3858,
      "Ġoxygen": 3859,
      "Ġweak": 3860,
      "ords": 3861,
      "ama": 3862,
      "ĠBecause": 3863,
      "Ġforces": 3864,
      "Ġstatus": 3865,
      "Ġclinical": 3866,
      "ĠCom": 3867,
      "ifically": 3868,
      "ĠUnion": 3869,
      "Ġ+": 3870,
      "Ġmonit": 3871,
      "irection": 3872,
      "hyd": 3873,
      "Ad": 3874,
      "Ġnutrition": 3875,
      "Ġearlier": 3876,
      "Ġpp": 3877,
      "ev": 3878,
      "Ġdetect": 3879,
      "edom": 3880,
      "Ġdat": 3881,
      "Ġvo": 3882,
      "aid": 3883,
      "house": 3884,
      "urally": 3885,
      "Ġqual": 3886,
      "Ġcourt": 3887,
      "Ġwrote": 3888,
      "Ġchance": 3889,
      "Ġbelief": 3890,
      "Ġelement": 3891,
      "oe": 3892,
      "bed": 3893,
      "Ġtissue": 3894,
      "ĠChurch": 3895,
      "ero": 3896,
      "enty": 3897,
      "Ġgold": 3898,
      "Ġvitamin": 3899,
      "Ġwatch": 3900,
      "ĠCommun": 3901,
      "Ġwrong": 3902,
      "lin": 3903,
      "Ġformer": 3904,
      "Ġattract": 3905,
      "Ġplat": 3906,
      "Ġinflamm": 3907,
      "works": 3908,
      "Ġden": 3909,
      "Ġconstit": 3910,
      "ste": 3911,
      "28": 3912,
      "ĠLondon": 3913,
      "Ġoccup": 3914,
      "Ġcities": 3915,
      "Ġrunning": 3916,
      "Ġnamed": 3917,
      "33": 3918,
      "Ġgir": 3919,
      "oma": 3920,
      "part": 3921,
      "Ġincome": 3922,
      "rehens": 3923,
      "Ġdisplay": 3924,
      "Ġnative": 3925,
      "Ġking": 3926,
      "Ġchanged": 3927,
      "Ġgenetic": 3928,
      "aur": 3929,
      "rome": 3930,
      "ĠVal": 3931,
      "aign": 3932,
      "Ġtransfer": 3933,
      "Ġdidn": 3934,
      "ĠJust": 3935,
      "Ġrelatively": 3936,
      "Pro": 3937,
      "Ġliqu": 3938,
      "ĠWilliam": 3939,
      "Is": 3940,
      "Ġresistance": 3941,
      "Ġfriend": 3942,
      "Ġcomplic": 3943,
      "Ġeducational": 3944,
      "ognitive": 3945,
      "Ġdistance": 3946,
      "Ġcitizens": 3947,
      "gin": 3948,
      "Ġpand": 3949,
      "Ġversion": 3950,
      "rest": 3951,
      "phas": 3952,
      "Ġcommand": 3953,
      "Ġremove": 3954,
      "Ġfederal": 3955,
      "ĠGermany": 3956,
      "ĠTherefore": 3957,
      "Ġstyle": 3958,
      "ĠAv": 3959,
      "Ġconstruct": 3960,
      "Ġbelieved": 3961,
      "Ġagg": 3962,
      "Ġorganic": 3963,
      "Ġfeeling": 3964,
      "Ġchallenge": 3965,
      "off": 3966,
      "Ġeight": 3967,
      "Ġbuy": 3968,
      "Ġrepe": 3969,
      "70": 3970,
      "hab": 3971,
      "itch": 3972,
      "Ġsample": 3973,
      "Ġinstruct": 3974,
      "ĠNow": 3975,
      "Ġemail": 3976,
      "Ġdiscovered": 3977,
      "Ġdefined": 3978,
      "Ġkid": 3979,
      "rupt": 3980,
      "ida": 3981,
      "Ġcris": 3982,
      "Ġcelebr": 3983,
      "ession": 3984,
      "ĠDNA": 3985,
      "ses": 3986,
      "Ġrelationships": 3987,
      "ophy": 3988,
      "All": 3989,
      "ĠPol": 3990,
      "Ġworked": 3991,
      "Ġfeature": 3992,
      "Ġrecommended": 3993,
      "Ġdetails": 3994,
      "eding": 3995,
      "mitted": 3996,
      "ĠCur": 3997,
      "unction": 3998,
      "Ġtour": 3999,
      "ĠProf": 4000,
      "Ġpeace": 4001,
      "Ġhighest": 4002,
      "Ġmilk": 4003,
      "Ġobserved": 4004,
      "IV": 4005,
      "ximately": 4006,
      "Ġpicture": 4007,
      "Ġgave": 4008,
      "Ġreducing": 4009,
      "--": 4010,
      "pped": 4011,
      "Ġtrig": 4012,
      "Ġchurch": 4013,
      "riculum": 4014,
      "Ġfile": 4015,
      "Ġdogs": 4016,
      "ĠDecember": 4017,
      "Ġtreated": 4018,
      "Ġblue": 4019,
      "ping": 4020,
      "ashington": 4021,
      "ĠTheir": 4022,
      "Ġreality": 4023,
      "ĠAut": 4024,
      "Ġbone": 4025,
      "Ġson": 4026,
      "iding": 4027,
      "Ġperhaps": 4028,
      "Ġnames": 4029,
      "Ġwid": 4030,
      "Ġfindings": 4031,
      "Ġhttp": 4032,
      "alt": 4033,
      "Ġfair": 4034,
      "Ġinjury": 4035,
      "ructure": 4036,
      "ocol": 4037,
      "Ġindustrial": 4038,
      "Ġvaccine": 4039,
      "men": 4040,
      "ĠBr": 4041,
      "cast": 4042,
      "Ġcarried": 4043,
      "Ġhappens": 4044,
      "isl": 4045,
      "Ġbecoming": 4046,
      "hors": 4047,
      "However": 4048,
      "Ġoffice": 4049,
      "Ġdri": 4050,
      "Ġcausing": 4051,
      "Ġexpand": 4052,
      "ingu": 4053,
      "aters": 4054,
      "Ġpick": 4055,
      "Ġtrust": 4056,
      "Ġimmediately": 4057,
      "resp": 4058,
      "ĠDes": 4059,
      "Ġsave": 4060,
      "Ġgets": 4061,
      "Ġexplore": 4062,
      "rew": 4063,
      "Un": 4064,
      "Ġrot": 4065,
      "Ġcharacteristics": 4066,
      "After": 4067,
      "ij": 4068,
      "Ġcycle": 4069,
      "Ġprofession": 4070,
      "ĠDon": 4071,
      "pris": 4072,
      "Ġlearned": 4073,
      "Ġfamous": 4074,
      "uild": 4075,
      "Ġdecades": 4076,
      "ĠPat": 4077,
      "Ġdecisions": 4078,
      "Ġsch": 4079,
      "Ġsuppl": 4080,
      "Ġequal": 4081,
      "Ġmale": 4082,
      "ĠLet": 4083,
      "Ġinsect": 4084,
      "Ġatmosp": 4085,
      "Ġparticipants": 4086,
      "Ġbodies": 4087,
      "iences": 4088,
      "Ġheavy": 4089,
      ");": 4090,
      "char": 4091,
      "Ġcontinued": 4092,
      "Ġvary": 4093,
      "encies": 4094,
      "ĠNovember": 4095
    },
    "merges": [
      [
        "Ġ",
        "t"
      ],
      [
        "Ġ",
        "a"
      ],
      [
        "h",
        "e"
      ],
      [
        "i",
        "n"
      ],
      [
        "r",
        "e"
      ],
      [
        "Ġt",
        "he"
      ],
      [
        "o",
        "n"
      ],
      [
        "e",
        "r"
      ],
      [
        "Ġ",
        "s"
      ],
      [
        "a",
        "t"
      ],
      [
        "Ġ",
        "o"
      ],
      [
        "Ġ",
        "c"
      ],
      [
        "e",
        "n"
      ],
      [
        "e",
        "s"
      ],
      [
        "Ġ",
        "w"
      ],
      [
        "i",
        "s"
      ],
      [
        "n",
        "d"
      ],
      [
        "i",
        "t"
      ],
      [
        "o",
        "r"
      ],
      [
        "Ġ",
        "p"
      ],
      [
        "a",
        "l"
      ],
      [
        "Ġ",
        "b"
      ],
      [
        "a",
        "n"
      ],
      [
        "Ġ",
        "f"
      ],
      [
        "in",
        "g"
      ],
      [
        "e",
        "d"
      ],
      [
        "Ġo",
        "f"
      ],
      [
        "o",
        "u"
      ],
      [
        "Ġ",
        "in"
      ],
      [
        "a",
        "r"
      ],
      [
        "Ġ",
        "m"
      ],
      [
        "Ġt",
        "o"
      ],
      [
        "Ġa",
        "nd"
      ],
      [
        "i",
        "c"
      ],
      [
        "Ġ",
        "d"
      ],
      [
        "i",
        "on"
      ],
      [
        "l",
        "e"
      ],
      [
        "r",
        "o"
      ],
      [
        "a",
        "s"
      ],
      [
        "Ġ",
        "h"
      ],
      [
        "en",
        "t"
      ],
      [
        "Ġt",
        "h"
      ],
      [
        "c",
        "t"
      ],
      [
        "Ġ",
        "e"
      ],
      [
        "i",
        "l"
      ],
      [
        "Ġ",
        "re"
      ],
      [
        "â",
        "Ģ"
      ],
      [
        "v",
        "e"
      ],
      [
        "o",
        "m"
      ],
      [
        "Ġ",
        "l"
      ],
      [
        "s",
        "t"
      ],
      [
        "Ġ",
        "n"
      ],
      [
        "Ġ",
        "is"
      ],
      [
        "l",
        "y"
      ],
      [
        "Ġb",
        "e"
      ],
      [
        "s",
        "e"
      ],
      [
        "Ġ",
        "T"
      ],
      [
        "Ġ",
        "g"
      ],
      [
        "o",
        "l"
      ],
      [
        "at",
        "ion"
      ],
      [
        "i",
        "m"
      ],
      [
        "e",
        "t"
      ],
      [
        "i",
        "d"
      ],
      [
        "u",
        "r"
      ],
      [
        "u",
        "t"
      ],
      [
        "o",
        "t"
      ],
      [
        "o",
        "w"
      ],
      [
        "c",
        "e"
      ],
      [
        "c",
        "h"
      ],
      [
        "r",
        "a"
      ],
      [
        "Ġ",
        "y"
      ],
      [
        "Ġf",
        "or"
      ],
      [
        "i",
        "g"
      ],
      [
        "Ġ",
        "u"
      ],
      [
        "Ġ",
        "A"
      ],
      [
        "Ġth",
        "at"
      ],
      [
        "Ġ",
        "on"
      ],
      [
        "Ġs",
        "t"
      ],
      [
        "v",
        "er"
      ],
      [
        "Ġ",
        "S"
      ],
      [
        "i",
        "r"
      ],
      [
        "Ġ",
        "I"
      ],
      [
        "u",
        "l"
      ],
      [
        "Ġy",
        "ou"
      ],
      [
        "Ġ",
        "C"
      ],
      [
        "a",
        "y"
      ],
      [
        "it",
        "h"
      ],
      [
        "Ġa",
        "s"
      ],
      [
        "Ġa",
        "re"
      ],
      [
        "a",
        "m"
      ],
      [
        "e",
        "l"
      ],
      [
        "Ġp",
        "ro"
      ],
      [
        "Ġc",
        "on"
      ],
      [
        "a",
        "d"
      ],
      [
        "he",
        "r"
      ],
      [
        "Ġw",
        "ith"
      ],
      [
        "Ġa",
        "n"
      ],
      [
        "i",
        "f"
      ],
      [
        "Ġo",
        "r"
      ],
      [
        "Ġa",
        "l"
      ],
      [
        "Ġ",
        "it"
      ],
      [
        "Ġw",
        "h"
      ],
      [
        "o",
        "d"
      ],
      [
        "âĢ",
        "Ļ"
      ],
      [
        "t",
        "er"
      ],
      [
        "m",
        "ent"
      ],
      [
        "ĠT",
        "he"
      ],
      [
        "Ġ",
        "("
      ],
      [
        "g",
        "e"
      ],
      [
        "Ġ",
        "M"
      ],
      [
        "t",
        "h"
      ],
      [
        "es",
        "s"
      ],
      [
        "o",
        "p"
      ],
      [
        "Ġd",
        "e"
      ],
      [
        "at",
        "e"
      ],
      [
        "Ġ",
        "P"
      ],
      [
        "er",
        "s"
      ],
      [
        "Ġ",
        "he"
      ],
      [
        "il",
        "l"
      ],
      [
        "i",
        "es"
      ],
      [
        "a",
        "b"
      ],
      [
        "Ġe",
        "x"
      ],
      [
        "e",
        "ct"
      ],
      [
        "is",
        "t"
      ],
      [
        "u",
        "s"
      ],
      [
        "Ġ",
        "1"
      ],
      [
        "Ġc",
        "om"
      ],
      [
        "o",
        "re"
      ],
      [
        "Ġw",
        "e"
      ],
      [
        "Ġs",
        "u"
      ],
      [
        "it",
        "y"
      ],
      [
        "i",
        "ve"
      ],
      [
        "Ġ",
        "B"
      ],
      [
        "Ġh",
        "a"
      ],
      [
        "es",
        "t"
      ],
      [
        "k",
        "e"
      ],
      [
        "a",
        "c"
      ],
      [
        "Ġ",
        "v"
      ],
      [
        "re",
        "s"
      ],
      [
        "u",
        "m"
      ],
      [
        "an",
        "t"
      ],
      [
        "Ġc",
        "an"
      ],
      [
        "ro",
        "m"
      ],
      [
        "l",
        "d"
      ],
      [
        "o",
        "s"
      ],
      [
        "q",
        "u"
      ],
      [
        "i",
        "v"
      ],
      [
        "e",
        "m"
      ],
      [
        "a",
        "in"
      ],
      [
        "Ġ",
        "âĢ"
      ],
      [
        "n",
        "t"
      ],
      [
        "Ġ",
        "H"
      ],
      [
        "Ġ",
        "W"
      ],
      [
        "p",
        "p"
      ],
      [
        "Ġb",
        "y"
      ],
      [
        "ig",
        "h"
      ],
      [
        "Ġc",
        "h"
      ],
      [
        "u",
        "d"
      ],
      [
        "Ġa",
        "t"
      ],
      [
        "Ġf",
        "rom"
      ],
      [
        "Ġ",
        "D"
      ],
      [
        "or",
        "t"
      ],
      [
        "o",
        "c"
      ],
      [
        "Ġn",
        "e"
      ],
      [
        "Ġ",
        "r"
      ],
      [
        "Ġ",
        "E"
      ],
      [
        "i",
        "al"
      ],
      [
        "a",
        "nd"
      ],
      [
        "Ġw",
        "as"
      ],
      [
        "Ġ",
        "2"
      ],
      [
        "Ġs",
        "e"
      ],
      [
        "Ġ",
        "le"
      ],
      [
        "u",
        "re"
      ],
      [
        "Ġ",
        "F"
      ],
      [
        "Ġ",
        "R"
      ],
      [
        "u",
        "n"
      ],
      [
        "ar",
        "t"
      ],
      [
        "Ġn",
        "ot"
      ],
      [
        "Ġha",
        "ve"
      ],
      [
        "ic",
        "al"
      ],
      [
        "Ġs",
        "h"
      ],
      [
        "Ġ",
        "en"
      ],
      [
        "o",
        "g"
      ],
      [
        "Ġ",
        "G"
      ],
      [
        "Ġ",
        "N"
      ],
      [
        "Ġs",
        "p"
      ],
      [
        "r",
        "i"
      ],
      [
        "Ġw",
        "or"
      ],
      [
        "Ġ",
        "L"
      ],
      [
        "Ġth",
        "is"
      ],
      [
        "Ġa",
        "b"
      ],
      [
        "Ġyou",
        "r"
      ],
      [
        "p",
        "t"
      ],
      [
        "r",
        "ou"
      ],
      [
        "igh",
        "t"
      ],
      [
        "d",
        "u"
      ],
      [
        "Ġ",
        "im"
      ],
      [
        "e",
        "re"
      ],
      [
        "om",
        "e"
      ],
      [
        "o",
        "st"
      ],
      [
        "ic",
        "h"
      ],
      [
        "ion",
        "s"
      ],
      [
        "al",
        "l"
      ],
      [
        "ou",
        "r"
      ],
      [
        "t",
        "her"
      ],
      [
        "Ġu",
        "s"
      ],
      [
        "ou",
        "ld"
      ],
      [
        "Ġp",
        "l"
      ],
      [
        "g",
        "h"
      ],
      [
        "p",
        "er"
      ],
      [
        "in",
        "e"
      ],
      [
        "T",
        "he"
      ],
      [
        "a",
        "ct"
      ],
      [
        "Ġthe",
        "ir"
      ],
      [
        "at",
        "ed"
      ],
      [
        "ou",
        "t"
      ],
      [
        "f",
        "f"
      ],
      [
        "a",
        "g"
      ],
      [
        "ar",
        "d"
      ],
      [
        "el",
        "l"
      ],
      [
        "0",
        "0"
      ],
      [
        "p",
        "l"
      ],
      [
        "Ġin",
        "t"
      ],
      [
        "a",
        "re"
      ],
      [
        "âĢ",
        "Ŀ"
      ],
      [
        "a",
        "k"
      ],
      [
        "Ġthe",
        "y"
      ],
      [
        "a",
        "ge"
      ],
      [
        "Ġ",
        "k"
      ],
      [
        "id",
        "e"
      ],
      [
        "Ġw",
        "he"
      ],
      [
        "o",
        "od"
      ],
      [
        "u",
        "st"
      ],
      [
        "as",
        "t"
      ],
      [
        "an",
        "s"
      ],
      [
        "e",
        "ar"
      ],
      [
        "Ġw",
        "ill"
      ],
      [
        "Ġ",
        "O"
      ],
      [
        "Ġwh",
        "ich"
      ],
      [
        "i",
        "z"
      ],
      [
        "ul",
        "t"
      ],
      [
        "e",
        "c"
      ],
      [
        "Ġin",
        "c"
      ],
      [
        "Ġa",
        "d"
      ],
      [
        "Ġal",
        "l"
      ],
      [
        "ou",
        "s"
      ],
      [
        "Ġd",
        "is"
      ],
      [
        "Ġcon",
        "t"
      ],
      [
        "Ġm",
        "ore"
      ],
      [
        "Ġcom",
        "p"
      ],
      [
        "en",
        "d"
      ],
      [
        "c",
        "c"
      ],
      [
        "r",
        "u"
      ],
      [
        "Ġre",
        "s"
      ],
      [
        "ve",
        "l"
      ],
      [
        "Ġd",
        "o"
      ],
      [
        "s",
        "o"
      ],
      [
        "i",
        "p"
      ],
      [
        "ĠI",
        "n"
      ],
      [
        "i",
        "b"
      ],
      [
        "Ġ",
        "U"
      ],
      [
        "Ġ",
        "J"
      ],
      [
        "Ġh",
        "as"
      ],
      [
        "on",
        "g"
      ],
      [
        "a",
        "p"
      ],
      [
        "ation",
        "s"
      ],
      [
        "ĠâĢ",
        "ľ"
      ],
      [
        "or",
        "m"
      ],
      [
        "il",
        "d"
      ],
      [
        "i",
        "a"
      ],
      [
        "ĠT",
        "h"
      ],
      [
        "ab",
        "le"
      ],
      [
        "Ġm",
        "an"
      ],
      [
        "at",
        "er"
      ],
      [
        "en",
        "ce"
      ],
      [
        "k",
        "s"
      ],
      [
        "e",
        "w"
      ],
      [
        "Ġim",
        "p"
      ],
      [
        "u",
        "al"
      ],
      [
        "ar",
        "y"
      ],
      [
        "Ġo",
        "ther"
      ],
      [
        "Ġc",
        "l"
      ],
      [
        "Ġal",
        "so"
      ],
      [
        "i",
        "re"
      ],
      [
        "Ġt",
        "e"
      ],
      [
        "e",
        "p"
      ],
      [
        "in",
        "d"
      ],
      [
        "r",
        "y"
      ],
      [
        "a",
        "ke"
      ],
      [
        "a",
        "ch"
      ],
      [
        "Ġb",
        "ut"
      ],
      [
        "ent",
        "s"
      ],
      [
        "re",
        "at"
      ],
      [
        "an",
        "ce"
      ],
      [
        "Ġm",
        "e"
      ],
      [
        "Ġp",
        "er"
      ],
      [
        "as",
        "e"
      ],
      [
        "ig",
        "n"
      ],
      [
        "Ġon",
        "e"
      ],
      [
        "res",
        "s"
      ],
      [
        "o",
        "se"
      ],
      [
        "Ġs",
        "o"
      ],
      [
        "as",
        "s"
      ],
      [
        "ver",
        "y"
      ],
      [
        "a",
        "v"
      ],
      [
        "Ġo",
        "ut"
      ],
      [
        "Ġ",
        "j"
      ],
      [
        "a",
        "u"
      ],
      [
        "Ġwe",
        "re"
      ],
      [
        "it",
        "ion"
      ],
      [
        "ct",
        "ion"
      ],
      [
        "on",
        "e"
      ],
      [
        "Ġp",
        "re"
      ],
      [
        "im",
        "e"
      ],
      [
        "ic",
        "e"
      ],
      [
        "Ġp",
        "e"
      ],
      [
        "Ġa",
        "pp"
      ],
      [
        "Ġst",
        "ud"
      ],
      [
        "Ġab",
        "out"
      ],
      [
        "Ġp",
        "art"
      ],
      [
        "Ġu",
        "n"
      ],
      [
        "en",
        "s"
      ],
      [
        "a",
        "ce"
      ],
      [
        "Ġe",
        "v"
      ],
      [
        "b",
        "er"
      ],
      [
        "Ġs",
        "y"
      ],
      [
        "or",
        "d"
      ],
      [
        "Ġthe",
        "m"
      ],
      [
        "Ġin",
        "f"
      ],
      [
        "ac",
        "k"
      ],
      [
        "i",
        "ke"
      ],
      [
        "Ġa",
        "r"
      ],
      [
        "o",
        "k"
      ],
      [
        "ou",
        "nt"
      ],
      [
        "Ġ2",
        "0"
      ],
      [
        "u",
        "e"
      ],
      [
        "Ġwh",
        "o"
      ],
      [
        "Ġcom",
        "m"
      ],
      [
        ")",
        "."
      ],
      [
        "or",
        "s"
      ],
      [
        "c",
        "es"
      ],
      [
        "ĠI",
        "t"
      ],
      [
        "Ġs",
        "c"
      ],
      [
        "n",
        "ow"
      ],
      [
        "is",
        "h"
      ],
      [
        "it",
        "e"
      ],
      [
        "op",
        "le"
      ],
      [
        "if",
        "f"
      ],
      [
        "an",
        "g"
      ],
      [
        "ĠS",
        "t"
      ],
      [
        "or",
        "y"
      ],
      [
        "l",
        "ow"
      ],
      [
        "Ġbe",
        "c"
      ],
      [
        "Ġ",
        "qu"
      ],
      [
        "am",
        "e"
      ],
      [
        "Ġm",
        "ay"
      ],
      [
        "ol",
        "og"
      ],
      [
        "Ġ",
        "K"
      ],
      [
        "Ġu",
        "p"
      ],
      [
        "ou",
        "nd"
      ],
      [
        "re",
        "e"
      ],
      [
        "u",
        "b"
      ],
      [
        "i",
        "le"
      ],
      [
        "Ġ1",
        "9"
      ],
      [
        "r",
        "ic"
      ],
      [
        "Ġwhe",
        "n"
      ],
      [
        "Ġth",
        "an"
      ],
      [
        "Ġs",
        "ome"
      ],
      [
        "Ġwor",
        "k"
      ],
      [
        "ay",
        "s"
      ],
      [
        "Ġthe",
        "re"
      ],
      [
        "i",
        "e"
      ],
      [
        "Ġre",
        "c"
      ],
      [
        "Ġpe",
        "ople"
      ],
      [
        "a",
        "il"
      ],
      [
        "ing",
        "s"
      ],
      [
        "nd",
        "er"
      ],
      [
        "ĠTh",
        "is"
      ],
      [
        "Ġd",
        "iff"
      ],
      [
        "re",
        "n"
      ],
      [
        "al",
        "th"
      ],
      [
        "Ġt",
        "ime"
      ],
      [
        "Ġo",
        "ur"
      ],
      [
        "Ġh",
        "ow"
      ],
      [
        "Ġg",
        "o"
      ],
      [
        "Ġt",
        "ra"
      ],
      [
        "Ġy",
        "ear"
      ],
      [
        "Ġh",
        "is"
      ],
      [
        "at",
        "es"
      ],
      [
        "Ġo",
        "ver"
      ],
      [
        "r",
        "it"
      ],
      [
        "Ġint",
        "o"
      ],
      [
        "Ġbe",
        "en"
      ],
      [
        "Ġthe",
        "se"
      ],
      [
        "ou",
        "gh"
      ],
      [
        "Ġu",
        "se"
      ],
      [
        "au",
        "se"
      ],
      [
        "Ġl",
        "ike"
      ],
      [
        "rou",
        "gh"
      ],
      [
        "Ġit",
        "s"
      ],
      [
        "Ġa",
        "g"
      ],
      [
        "ĠC",
        "h"
      ],
      [
        "h",
        "y"
      ],
      [
        "l",
        "ud"
      ],
      [
        "Ġ",
        "ro"
      ],
      [
        "Ġcon",
        "s"
      ],
      [
        "Ġhe",
        "l"
      ],
      [
        "Ġne",
        "ed"
      ],
      [
        "al",
        "ly"
      ],
      [
        "Ġa",
        "ct"
      ],
      [
        "Ġc",
        "ol"
      ],
      [
        "Ġbe",
        "t"
      ],
      [
        "n",
        "ing"
      ],
      [
        "Ġm",
        "ost"
      ],
      [
        "it",
        "ies"
      ],
      [
        "Ġt",
        "r"
      ],
      [
        "m",
        "er"
      ],
      [
        "i",
        "an"
      ],
      [
        "if",
        "ic"
      ],
      [
        "Ġk",
        "now"
      ],
      [
        "Ġb",
        "l"
      ],
      [
        "l",
        "l"
      ],
      [
        "Ġ",
        "V"
      ],
      [
        "Ġhel",
        "p"
      ],
      [
        "on",
        "s"
      ],
      [
        "m",
        "s"
      ],
      [
        "Ġ",
        "3"
      ],
      [
        "ff",
        "ect"
      ],
      [
        "Ġ",
        "Y"
      ],
      [
        "ro",
        "w"
      ],
      [
        "on",
        "d"
      ],
      [
        "er",
        "v"
      ],
      [
        "o",
        "ve"
      ],
      [
        "Ġu",
        "nder"
      ],
      [
        "ver",
        "s"
      ],
      [
        "w",
        "e"
      ],
      [
        "in",
        "t"
      ],
      [
        "ter",
        "n"
      ],
      [
        "Ġa",
        "cc"
      ],
      [
        "vel",
        "op"
      ],
      [
        "o",
        "ok"
      ],
      [
        "Ġ",
        "if"
      ],
      [
        "ment",
        "s"
      ],
      [
        "Ġch",
        "ild"
      ],
      [
        "Ġ",
        "ra"
      ],
      [
        "le",
        "ct"
      ],
      [
        "t",
        "e"
      ],
      [
        "st",
        "em"
      ],
      [
        "l",
        "es"
      ],
      [
        "j",
        "ect"
      ],
      [
        "i",
        "ous"
      ],
      [
        "Ġd",
        "es"
      ],
      [
        "c",
        "ess"
      ],
      [
        "Ġsu",
        "ch"
      ],
      [
        "Ġre",
        "l"
      ],
      [
        "p",
        "le"
      ],
      [
        "Ġinc",
        "lud"
      ],
      [
        "ir",
        "st"
      ],
      [
        "y",
        "p"
      ],
      [
        "l",
        "ic"
      ],
      [
        "Ġpro",
        "du"
      ],
      [
        "Ġan",
        "y"
      ],
      [
        "ĠâĢ",
        "ĵ"
      ],
      [
        "Ġne",
        "w"
      ],
      [
        "Ġwh",
        "at"
      ],
      [
        "re",
        "d"
      ],
      [
        "Ġus",
        "ed"
      ],
      [
        "Ġf",
        "e"
      ],
      [
        "Ġs",
        "a"
      ],
      [
        "i",
        "ent"
      ],
      [
        "at",
        "ive"
      ],
      [
        "at",
        "ing"
      ],
      [
        "'",
        "s"
      ],
      [
        "o",
        "b"
      ],
      [
        "ul",
        "ar"
      ],
      [
        "Ġw",
        "ould"
      ],
      [
        "Ġh",
        "ad"
      ],
      [
        "Ġt",
        "w"
      ],
      [
        "Ġre",
        "p"
      ],
      [
        "o",
        "v"
      ],
      [
        "Ġman",
        "y"
      ],
      [
        "Ġth",
        "rough"
      ],
      [
        "Ġde",
        "velop"
      ],
      [
        "Ġdiff",
        "ere"
      ],
      [
        "Ġd",
        "i"
      ],
      [
        "c",
        "ed"
      ],
      [
        "ation",
        "al"
      ],
      [
        "Ġin",
        "d"
      ],
      [
        "o",
        "ol"
      ],
      [
        "p",
        "h"
      ],
      [
        "Ġp",
        "r"
      ],
      [
        "Ġpro",
        "v"
      ],
      [
        "Ġ20",
        "1"
      ],
      [
        "Ġa",
        "c"
      ],
      [
        "Ġa",
        "m"
      ],
      [
        "Ġg",
        "en"
      ],
      [
        "Ġon",
        "ly"
      ],
      [
        "et",
        "h"
      ],
      [
        "is",
        "e"
      ],
      [
        "ic",
        "s"
      ],
      [
        "f",
        "ul"
      ],
      [
        "Ġhe",
        "alth"
      ],
      [
        "Ġsp",
        "ec"
      ],
      [
        "Ġe",
        "m"
      ],
      [
        "Ġn",
        "o"
      ],
      [
        "he",
        "d"
      ],
      [
        "rou",
        "nd"
      ],
      [
        "os",
        "s"
      ],
      [
        "ur",
        "ing"
      ],
      [
        "f",
        "ter"
      ],
      [
        "Ġof",
        "f"
      ],
      [
        "Ġsy",
        "stem"
      ],
      [
        "in",
        "k"
      ],
      [
        "ar",
        "k"
      ],
      [
        "il",
        "ity"
      ],
      [
        "he",
        "n"
      ],
      [
        "Ġp",
        "o"
      ],
      [
        "Ġre",
        "g"
      ],
      [
        "al",
        "s"
      ],
      [
        "Ġf",
        "irst"
      ],
      [
        "ot",
        "h"
      ],
      [
        "Ġex",
        "p"
      ],
      [
        "t",
        "s"
      ],
      [
        "Ġsh",
        "ould"
      ],
      [
        ")",
        ","
      ],
      [
        "Ġde",
        "c"
      ],
      [
        "ro",
        "p"
      ],
      [
        "as",
        "ed"
      ],
      [
        "er",
        "m"
      ],
      [
        "t",
        "en"
      ],
      [
        "at",
        "h"
      ],
      [
        "n",
        "e"
      ],
      [
        "u",
        "c"
      ],
      [
        "Ġad",
        "d"
      ],
      [
        "ra",
        "ct"
      ],
      [
        "Ġw",
        "ell"
      ],
      [
        "ol",
        "d"
      ],
      [
        "an",
        "ge"
      ],
      [
        "ib",
        "le"
      ],
      [
        "Ġsu",
        "pp"
      ],
      [
        "Ġg",
        "et"
      ],
      [
        "f",
        "ore"
      ],
      [
        "Ġo",
        "b"
      ],
      [
        "Ġtw",
        "o"
      ],
      [
        "ri",
        "b"
      ],
      [
        "ĠU",
        "n"
      ],
      [
        "ow",
        "er"
      ],
      [
        "Ġas",
        "s"
      ],
      [
        "u",
        "res"
      ],
      [
        "Ġat",
        "t"
      ],
      [
        "if",
        "e"
      ],
      [
        "Ġw",
        "ater"
      ],
      [
        "Ġs",
        "ur"
      ],
      [
        "we",
        "en"
      ],
      [
        "is",
        "s"
      ],
      [
        "I",
        "n"
      ],
      [
        "Ġre",
        "m"
      ],
      [
        "ow",
        "n"
      ],
      [
        "Ġf",
        "l"
      ],
      [
        "Ġm",
        "ake"
      ],
      [
        "Ġle",
        "ar"
      ],
      [
        "er",
        "t"
      ],
      [
        "Ġh",
        "igh"
      ],
      [
        "Ġs",
        "m"
      ],
      [
        "ar",
        "ch"
      ],
      [
        "b",
        "le"
      ],
      [
        "h",
        "at"
      ],
      [
        "Ġc",
        "o"
      ],
      [
        "g",
        "an"
      ],
      [
        "Ġimp",
        "ort"
      ],
      [
        "Ġin",
        "v"
      ],
      [
        "ant",
        "s"
      ],
      [
        "Ġbet",
        "ween"
      ],
      [
        "ra",
        "m"
      ],
      [
        "w",
        "n"
      ],
      [
        "it",
        "s"
      ],
      [
        "n",
        "g"
      ],
      [
        "se",
        "l"
      ],
      [
        "e",
        "ver"
      ],
      [
        "c",
        "y"
      ],
      [
        "ic",
        "k"
      ],
      [
        "t",
        "ing"
      ],
      [
        "Ġp",
        "ers"
      ],
      [
        "he",
        "s"
      ],
      [
        "Ġwhe",
        "re"
      ],
      [
        "Ġb",
        "u"
      ],
      [
        "ch",
        "n"
      ],
      [
        "Ġyear",
        "s"
      ],
      [
        "Ġp",
        "res"
      ],
      [
        "ĠH",
        "e"
      ],
      [
        "Ġ",
        "\""
      ],
      [
        "Ġc",
        "ould"
      ],
      [
        "Ġsu",
        "b"
      ],
      [
        "Ġ",
        "4"
      ],
      [
        "Ġdiffere",
        "nt"
      ],
      [
        "f",
        "orm"
      ],
      [
        "i",
        "ed"
      ],
      [
        "il",
        "y"
      ],
      [
        "ur",
        "al"
      ],
      [
        "i",
        "ence"
      ],
      [
        "Ġex",
        "am"
      ],
      [
        "Ġtr",
        "ans"
      ],
      [
        "at",
        "a"
      ],
      [
        "ad",
        "e"
      ],
      [
        "Ġ",
        "5"
      ],
      [
        "olog",
        "y"
      ],
      [
        "Ġre",
        "se"
      ],
      [
        "Ġex",
        "per"
      ],
      [
        "o",
        "y"
      ],
      [
        "ch",
        "ool"
      ],
      [
        "s",
        "s"
      ],
      [
        "u",
        "ch"
      ],
      [
        "a",
        "w"
      ],
      [
        "Ġt",
        "yp"
      ],
      [
        "ut",
        "ion"
      ],
      [
        "id",
        "ent"
      ],
      [
        "e",
        "f"
      ],
      [
        "i",
        "et"
      ],
      [
        "Ġin",
        "ter"
      ],
      [
        "n",
        "ess"
      ],
      [
        "Ġin",
        "st"
      ],
      [
        "Ġe",
        "ffect"
      ],
      [
        "x",
        "t"
      ],
      [
        "Ġc",
        "ar"
      ],
      [
        "Ġm",
        "od"
      ],
      [
        "Ġm",
        "ed"
      ],
      [
        "in",
        "s"
      ],
      [
        "Ġ",
        "her"
      ],
      [
        "Ġp",
        "ol"
      ],
      [
        "in",
        "es"
      ],
      [
        "Ġfor",
        "m"
      ],
      [
        "Ġwor",
        "ld"
      ],
      [
        "Ġw",
        "ay"
      ],
      [
        "ere",
        "d"
      ],
      [
        "Ġev",
        "en"
      ],
      [
        "Ġinc",
        "re"
      ],
      [
        "Ġn",
        "um"
      ],
      [
        "ual",
        "ly"
      ],
      [
        "Ġe",
        "ar"
      ],
      [
        "Ġs",
        "im"
      ],
      [
        "Ġbec",
        "ause"
      ],
      [
        "Ġ",
        "ke"
      ],
      [
        "g",
        "et"
      ],
      [
        "Ġdis",
        "c"
      ],
      [
        "Ġl",
        "ong"
      ],
      [
        ".",
        "âĢĿ"
      ],
      [
        "Ġj",
        "ust"
      ],
      [
        "Ġ",
        "very"
      ],
      [
        "2",
        "0"
      ],
      [
        "ak",
        "ing"
      ],
      [
        "Ġa",
        "fter"
      ],
      [
        "Ġres",
        "p"
      ],
      [
        "Ġe",
        "very"
      ],
      [
        "Ġthe",
        "n"
      ],
      [
        "it",
        "ed"
      ],
      [
        "Ġs",
        "ign"
      ],
      [
        "Ġc",
        "ount"
      ],
      [
        "Ġpro",
        "cess"
      ],
      [
        "Ġs",
        "oc"
      ],
      [
        "at",
        "ure"
      ],
      [
        "r",
        "on"
      ],
      [
        "v",
        "ent"
      ],
      [
        "g",
        "y"
      ],
      [
        "od",
        "y"
      ],
      [
        "l",
        "and"
      ],
      [
        "Ġf",
        "ound"
      ],
      [
        "as",
        "es"
      ],
      [
        "Ġse",
        "e"
      ],
      [
        "Ġh",
        "um"
      ],
      [
        "ical",
        "ly"
      ],
      [
        "Ġl",
        "ar"
      ],
      [
        "c",
        "k"
      ],
      [
        "p",
        "s"
      ],
      [
        "Ġd",
        "et"
      ],
      [
        "Ġv",
        "ar"
      ],
      [
        "is",
        "m"
      ],
      [
        "ic",
        "t"
      ],
      [
        "iv",
        "es"
      ],
      [
        "Ġchild",
        "ren"
      ],
      [
        "Ġimport",
        "ant"
      ],
      [
        "f",
        "t"
      ],
      [
        "ist",
        "s"
      ],
      [
        "Ġinf",
        "orm"
      ],
      [
        "ce",
        "pt"
      ],
      [
        "Ġp",
        "at"
      ],
      [
        "ar",
        "m"
      ],
      [
        "Ġres",
        "ult"
      ],
      [
        "ol",
        "low"
      ],
      [
        "Ġ",
        "ed"
      ],
      [
        "Ġc",
        "ent"
      ],
      [
        "ir",
        "on"
      ],
      [
        "ot",
        "her"
      ],
      [
        "Ġf",
        "act"
      ],
      [
        "Ġf",
        "ood"
      ],
      [
        "Ġre",
        "f"
      ],
      [
        "Ġte",
        "chn"
      ],
      [
        "Ġp",
        "h"
      ],
      [
        "mer",
        "ic"
      ],
      [
        "ur",
        "n"
      ],
      [
        "Ġgen",
        "er"
      ],
      [
        "Ġex",
        "t"
      ],
      [
        "Ġth",
        "ose"
      ],
      [
        "u",
        "es"
      ],
      [
        "Ġre",
        "qu"
      ],
      [
        "Ġs",
        "k"
      ],
      [
        "Ġbe",
        "ing"
      ],
      [
        "Ġl",
        "ife"
      ],
      [
        "i",
        "ew"
      ],
      [
        "ru",
        "ct"
      ],
      [
        "Ġe",
        "ach"
      ],
      [
        "Ġc",
        "a"
      ],
      [
        "c",
        "on"
      ],
      [
        "Ġ2",
        "00"
      ],
      [
        "Ġde",
        "p"
      ],
      [
        "Ġpart",
        "ic"
      ],
      [
        "or",
        "k"
      ],
      [
        "Ġse",
        "c"
      ],
      [
        "Ġg",
        "row"
      ],
      [
        "Ġcomm",
        "un"
      ],
      [
        "c",
        "er"
      ],
      [
        "l",
        "ed"
      ],
      [
        "Ġle",
        "vel"
      ],
      [
        "Ġc",
        "all"
      ],
      [
        "d",
        "s"
      ],
      [
        "Ġl",
        "oc"
      ],
      [
        "Ġle",
        "ad"
      ],
      [
        "ag",
        "es"
      ],
      [
        "om",
        "m"
      ],
      [
        "Ġc",
        "re"
      ],
      [
        "ĠW",
        "e"
      ],
      [
        "Ġd",
        "uring"
      ],
      [
        "Ġre",
        "ad"
      ],
      [
        "Ġm",
        "uch"
      ],
      [
        "T",
        "h"
      ],
      [
        "Ġpers",
        "on"
      ],
      [
        "Ġstud",
        "ents"
      ],
      [
        "ic",
        "es"
      ],
      [
        "im",
        "es"
      ],
      [
        "Ġp",
        "ub"
      ],
      [
        "Ġ",
        "-"
      ],
      [
        "Ġd",
        "ata"
      ],
      [
        "Ġpro",
        "g"
      ],
      [
        "Ġo",
        "wn"
      ],
      [
        "Ġdo",
        "es"
      ],
      [
        "Ġf",
        "am"
      ],
      [
        "Ġs",
        "et"
      ],
      [
        "Ġg",
        "ra"
      ],
      [
        "ĠThe",
        "y"
      ],
      [
        "al",
        "ity"
      ],
      [
        "Ġde",
        "f"
      ],
      [
        "ĠI",
        "f"
      ],
      [
        "Ġm",
        "on"
      ],
      [
        "Ġar",
        "t"
      ],
      [
        ".",
        ","
      ],
      [
        "y",
        "s"
      ],
      [
        "v",
        "ed"
      ],
      [
        "h",
        "ip"
      ],
      [
        ".",
        "."
      ],
      [
        "ĠA",
        "l"
      ],
      [
        "i",
        "vers"
      ],
      [
        "Ġf",
        "ollow"
      ],
      [
        "Ġd",
        "ist"
      ],
      [
        "ĠA",
        "meric"
      ],
      [
        "Ġm",
        "in"
      ],
      [
        "Ġf",
        "ind"
      ],
      [
        "ĠH",
        "ow"
      ],
      [
        "Ġstud",
        "y"
      ],
      [
        "Ġg",
        "ood"
      ],
      [
        "Ġ",
        "ent"
      ],
      [
        "an",
        "y"
      ],
      [
        "ĠA",
        "s"
      ],
      [
        "t",
        "le"
      ],
      [
        "iz",
        "e"
      ],
      [
        "Ġs",
        "he"
      ],
      [
        "iz",
        "ed"
      ],
      [
        "1",
        "9"
      ],
      [
        "Ġm",
        "ain"
      ],
      [
        "g",
        "g"
      ],
      [
        "ect",
        "ion"
      ],
      [
        "Ġr",
        "ight"
      ],
      [
        "Ġdis",
        "e"
      ],
      [
        "Ġc",
        "ur"
      ],
      [
        "at",
        "her"
      ],
      [
        "Ġm",
        "y"
      ],
      [
        "Ġc",
        "he"
      ],
      [
        "Ġus",
        "ing"
      ],
      [
        "Ġst",
        "r"
      ],
      [
        "st",
        "and"
      ],
      [
        "Ġa",
        "v"
      ],
      [
        "Ġpro",
        "ble"
      ],
      [
        "Ġin",
        "s"
      ],
      [
        "w",
        "ard"
      ],
      [
        "Ġa",
        "ut"
      ],
      [
        "Ġb",
        "ack"
      ],
      [
        "i",
        "o"
      ],
      [
        "v",
        "iron"
      ],
      [
        "Ġinform",
        "ation"
      ],
      [
        "Ġt",
        "reat"
      ],
      [
        "ĠP",
        "ro"
      ],
      [
        "Ġs",
        "chool"
      ],
      [
        "Ġs",
        "ame"
      ],
      [
        "ent",
        "ial"
      ],
      [
        "Ġt",
        "est"
      ],
      [
        "Ġ1",
        "8"
      ],
      [
        "Ġb",
        "ody"
      ],
      [
        "Ġof",
        "ten"
      ],
      [
        "Ġc",
        "or"
      ],
      [
        "iv",
        "id"
      ],
      [
        "Ġs",
        "ol"
      ],
      [
        "ver",
        "n"
      ],
      [
        "ĠF",
        "or"
      ],
      [
        "Ġcomp",
        "le"
      ],
      [
        "Ġen",
        "d"
      ],
      [
        "e",
        "g"
      ],
      [
        "Ġb",
        "oth"
      ],
      [
        "Ġt",
        "ake"
      ],
      [
        "re",
        "ad"
      ],
      [
        "Ġ",
        "6"
      ],
      [
        "ĠA",
        "n"
      ],
      [
        "Ġv",
        "al"
      ],
      [
        "c",
        "ent"
      ],
      [
        "Ġsh",
        "ow"
      ],
      [
        "Ġm",
        "ade"
      ],
      [
        "Ġp",
        "op"
      ],
      [
        "Ġr",
        "is"
      ],
      [
        "in",
        "al"
      ],
      [
        "Ġbe",
        "fore"
      ],
      [
        "Ġl",
        "ess"
      ],
      [
        "i",
        "en"
      ],
      [
        "al",
        "e"
      ],
      [
        "Ġpro",
        "t"
      ],
      [
        "Ġg",
        "l"
      ],
      [
        "Ġd",
        "ay"
      ],
      [
        "Ġsm",
        "all"
      ],
      [
        "Ġwh",
        "ile"
      ],
      [
        "Ġex",
        "pl"
      ],
      [
        "d",
        "er"
      ],
      [
        "t",
        "ed"
      ],
      [
        "ĠI",
        "nd"
      ],
      [
        "Ġg",
        "rou"
      ],
      [
        "ĠâĢ",
        "ĺ"
      ],
      [
        "oc",
        "k"
      ],
      [
        "Ġst",
        "art"
      ],
      [
        "Ġsa",
        "id"
      ],
      [
        "om",
        "en"
      ],
      [
        "hy",
        "s"
      ],
      [
        "ro",
        "l"
      ],
      [
        "Ġa",
        "round"
      ],
      [
        "Ġact",
        "iv"
      ],
      [
        "in",
        "ed"
      ],
      [
        "Ġre",
        "du"
      ],
      [
        "Ġcomm",
        "on"
      ],
      [
        "n",
        "ce"
      ],
      [
        "Ġb",
        "r"
      ],
      [
        "viron",
        "ment"
      ],
      [
        "iet",
        "y"
      ],
      [
        "Ġf",
        "un"
      ],
      [
        "ak",
        "es"
      ],
      [
        "t",
        "y"
      ],
      [
        "u",
        "nd"
      ],
      [
        "Ġrese",
        "arch"
      ],
      [
        "Ġsupp",
        "ort"
      ],
      [
        "in",
        "ce"
      ],
      [
        "Ġp",
        "oss"
      ],
      [
        "Ġh",
        "ist"
      ],
      [
        "ul",
        "ation"
      ],
      [
        "Ġha",
        "nd"
      ],
      [
        "d",
        "ition"
      ],
      [
        "Ġcl",
        "ass"
      ],
      [
        "er",
        "gy"
      ],
      [
        "it",
        "al"
      ],
      [
        "ĠY",
        "ou"
      ],
      [
        "Ġc",
        "are"
      ],
      [
        "r",
        "al"
      ],
      [
        "Ġor",
        "gan"
      ],
      [
        "Ġag",
        "ain"
      ],
      [
        "Ġs",
        "erv"
      ],
      [
        "ra",
        "p"
      ],
      [
        "im",
        "ate"
      ],
      [
        "i",
        "x"
      ],
      [
        "Ġv",
        "is"
      ],
      [
        ",",
        "âĢĿ"
      ],
      [
        "Ġdes",
        "ign"
      ],
      [
        "iv",
        "ing"
      ],
      [
        "Ġb",
        "o"
      ],
      [
        "Ġl",
        "it"
      ],
      [
        "i",
        "el"
      ],
      [
        "Ġl",
        "ook"
      ],
      [
        "Ġnum",
        "ber"
      ],
      [
        "ĠC",
        "on"
      ],
      [
        "i",
        "um"
      ],
      [
        "Ġd",
        "own"
      ],
      [
        "Ġprov",
        "id"
      ],
      [
        "ĠA",
        "r"
      ],
      [
        "Ġo",
        "cc"
      ],
      [
        "Ġ1",
        "0"
      ],
      [
        "Ġc",
        "le"
      ],
      [
        "i",
        "er"
      ],
      [
        "Ġm",
        "a"
      ],
      [
        "i",
        "qu"
      ],
      [
        "Ġp",
        "ower"
      ],
      [
        "Ġn",
        "ow"
      ],
      [
        "ut",
        "e"
      ],
      [
        "Ġhum",
        "an"
      ],
      [
        "ar",
        "s"
      ],
      [
        "v",
        "es"
      ],
      [
        "Ġexam",
        "ple"
      ],
      [
        "Ġch",
        "ar"
      ],
      [
        "v",
        "ing"
      ],
      [
        "u",
        "p"
      ],
      [
        "Ġcons",
        "id"
      ],
      [
        "Ġe",
        "lect"
      ],
      [
        "ur",
        "y"
      ],
      [
        "Ġcon",
        "f"
      ],
      [
        "Ġpl",
        "an"
      ],
      [
        "Ġunder",
        "stand"
      ],
      [
        "Ġst",
        "ate"
      ],
      [
        "00",
        "0"
      ],
      [
        "ire",
        "ct"
      ],
      [
        "ĠS",
        "p"
      ],
      [
        "Ġm",
        "ust"
      ],
      [
        "om",
        "s"
      ],
      [
        "|",
        "|"
      ],
      [
        "âĢ",
        "ĵ"
      ],
      [
        "ĠThe",
        "re"
      ],
      [
        "Ġbe",
        "l"
      ],
      [
        "Ġd",
        "r"
      ],
      [
        "v",
        "en"
      ],
      [
        "ra",
        "in"
      ],
      [
        "Ġs",
        "er"
      ],
      [
        "is",
        "hed"
      ],
      [
        "t",
        "he"
      ],
      [
        "ĠS",
        "c"
      ],
      [
        "Ġm",
        "em"
      ],
      [
        "âĢ",
        "ľ"
      ],
      [
        "act",
        "er"
      ],
      [
        "her",
        "s"
      ],
      [
        "Th",
        "is"
      ],
      [
        "Ġpo",
        "int"
      ],
      [
        "a",
        "ir"
      ],
      [
        "Ġc",
        "ell"
      ],
      [
        "Ġ",
        "7"
      ],
      [
        "re",
        "nt"
      ],
      [
        "Ġm",
        "et"
      ],
      [
        "g",
        "er"
      ],
      [
        "an",
        "c"
      ],
      [
        "Ġl",
        "and"
      ],
      [
        "Ġe",
        "as"
      ],
      [
        "Ġth",
        "ree"
      ],
      [
        "d",
        "ay"
      ],
      [
        "Ġbu",
        "ild"
      ],
      [
        "Ġp",
        "ract"
      ],
      [
        "ion",
        "al"
      ],
      [
        "g",
        "en"
      ],
      [
        "Ġinclud",
        "ing"
      ],
      [
        "ro",
        "ss"
      ],
      [
        "a",
        "ve"
      ],
      [
        "âĢ",
        "Ķ"
      ],
      [
        "ial",
        "ly"
      ],
      [
        "Ġg",
        "reat"
      ],
      [
        "1",
        "0"
      ],
      [
        "o",
        "h"
      ],
      [
        "id",
        "s"
      ],
      [
        "Ġw",
        "rit"
      ],
      [
        "Ġlear",
        "n"
      ],
      [
        "it",
        "ive"
      ],
      [
        "Ġall",
        "ow"
      ],
      [
        "sel",
        "f"
      ],
      [
        "e",
        "ad"
      ],
      [
        "us",
        "s"
      ],
      [
        "ivid",
        "ual"
      ],
      [
        "Ġprodu",
        "ct"
      ],
      [
        "e",
        "x"
      ],
      [
        "es",
        "p"
      ],
      [
        "c",
        "l"
      ],
      [
        "it",
        "ions"
      ],
      [
        "Ġad",
        "v"
      ],
      [
        "ain",
        "s"
      ],
      [
        "Ġe",
        "qu"
      ],
      [
        "ĠN",
        "ew"
      ],
      [
        "c",
        "om"
      ],
      [
        "Ġcont",
        "in"
      ],
      [
        "Ġo",
        "p"
      ],
      [
        "Ġlar",
        "ge"
      ],
      [
        "Ġrequ",
        "ire"
      ],
      [
        "Ġs",
        "om"
      ],
      [
        "ater",
        "ial"
      ],
      [
        "Ġ",
        "est"
      ],
      [
        "Ġw",
        "ant"
      ],
      [
        "ter",
        "s"
      ],
      [
        "Ġgo",
        "vern"
      ],
      [
        "Ġa",
        "w"
      ],
      [
        "Ġbe",
        "h"
      ],
      [
        "r",
        "ies"
      ],
      [
        "Ġrep",
        "ort"
      ],
      [
        "Ġsy",
        "m"
      ],
      [
        "Ġ",
        "8"
      ],
      [
        "ou",
        "se"
      ],
      [
        "e",
        "e"
      ],
      [
        "Ġknow",
        "n"
      ],
      [
        "are",
        "d"
      ],
      [
        "Ġg",
        "u"
      ],
      [
        "Ġb",
        "en"
      ],
      [
        "Ġimp",
        "ro"
      ],
      [
        "Ġst",
        "ill"
      ],
      [
        "Ġdise",
        "ase"
      ],
      [
        "Ġth",
        "ink"
      ],
      [
        "el",
        "s"
      ],
      [
        "et",
        "s"
      ],
      [
        "Ġqu",
        "est"
      ],
      [
        "ĠB",
        "ut"
      ],
      [
        "Ġen",
        "vironment"
      ],
      [
        "Ġc",
        "our"
      ],
      [
        "ĠThe",
        "se"
      ],
      [
        "l",
        "ine"
      ],
      [
        "en",
        "g"
      ],
      [
        "Ġcon",
        "st"
      ],
      [
        "Ġca",
        "us"
      ],
      [
        "Ġed",
        "uc"
      ],
      [
        "er",
        "ing"
      ],
      [
        "Ġpl",
        "ace"
      ],
      [
        "ul",
        "l"
      ],
      [
        "Ġm",
        "ight"
      ],
      [
        "eth",
        "od"
      ],
      [
        "Ġapp",
        "ro"
      ],
      [
        "Ġh",
        "im"
      ],
      [
        "ĠA",
        "nd"
      ],
      [
        "Ġd",
        "id"
      ],
      [
        "pt",
        "ion"
      ],
      [
        "Ġind",
        "ividual"
      ],
      [
        "Ġth",
        "ough"
      ],
      [
        "re",
        "en"
      ],
      [
        "Ġp",
        "ain"
      ],
      [
        "Ġcall",
        "ed"
      ],
      [
        "ou",
        "th"
      ],
      [
        "ivers",
        "ity"
      ],
      [
        "ere",
        "st"
      ],
      [
        "Ġ",
        "ide"
      ],
      [
        "Ġsoc",
        "ial"
      ],
      [
        "t",
        "t"
      ],
      [
        "ect",
        "ed"
      ],
      [
        "con",
        "om"
      ],
      [
        "Ġt",
        "em"
      ],
      [
        "Ġ",
        "ve"
      ],
      [
        "iv",
        "en"
      ],
      [
        "Ġb",
        "est"
      ],
      [
        "iz",
        "ation"
      ],
      [
        "Ġp",
        "ot"
      ],
      [
        "as",
        "h"
      ],
      [
        "our",
        "ces"
      ],
      [
        "Ġbl",
        "ood"
      ],
      [
        "i",
        "ver"
      ],
      [
        "Ġm",
        "at"
      ],
      [
        "Ġpl",
        "ay"
      ],
      [
        "Ġis",
        "s"
      ],
      [
        "i",
        "od"
      ],
      [
        "Ġf",
        "ew"
      ],
      [
        "a",
        "h"
      ],
      [
        "Ġe",
        "t"
      ],
      [
        "Ġpro",
        "f"
      ],
      [
        "in",
        "ess"
      ],
      [
        "Ġim",
        "m"
      ],
      [
        "Ġch",
        "ange"
      ],
      [
        "ent",
        "al"
      ],
      [
        "Ġp",
        "hys"
      ],
      [
        "Ġch",
        "ang"
      ],
      [
        "Ġst",
        "and"
      ],
      [
        "Ġre",
        "t"
      ],
      [
        "Ġd",
        "on"
      ],
      [
        "oc",
        "i"
      ],
      [
        "Ġp",
        "os"
      ],
      [
        "Ġwith",
        "out"
      ],
      [
        "in",
        "ation"
      ],
      [
        "Ġwith",
        "in"
      ],
      [
        "Ġlear",
        "ning"
      ],
      [
        "Ġ",
        "9"
      ],
      [
        "Ġ",
        "ident"
      ],
      [
        "in",
        "c"
      ],
      [
        "Ġm",
        "aterial"
      ],
      [
        "Ġp",
        "ur"
      ],
      [
        "n",
        "er"
      ],
      [
        "Ġh",
        "ome"
      ],
      [
        "Ġpub",
        "lic"
      ],
      [
        "ord",
        "ing"
      ],
      [
        "Ġ",
        "&"
      ],
      [
        "ff",
        "ic"
      ],
      [
        "Ġris",
        "k"
      ],
      [
        "Ġde",
        "m"
      ],
      [
        "Ġdevelop",
        "ment"
      ],
      [
        "Ġen",
        "ergy"
      ],
      [
        "Ġpres",
        "ent"
      ],
      [
        "al",
        "k"
      ],
      [
        "b",
        "s"
      ],
      [
        "ĠI",
        "s"
      ],
      [
        "Ġl",
        "ight"
      ],
      [
        "as",
        "on"
      ],
      [
        "Ġa",
        "ir"
      ],
      [
        "d",
        "e"
      ],
      [
        "Ġb",
        "re"
      ],
      [
        "os",
        "ed"
      ],
      [
        "a",
        "x"
      ],
      [
        "Ġinclud",
        "e"
      ],
      [
        "r",
        "ation"
      ],
      [
        "ill",
        "s"
      ],
      [
        "ang",
        "u"
      ],
      [
        "l",
        "ess"
      ],
      [
        "Ġs",
        "it"
      ],
      [
        "ert",
        "ain"
      ],
      [
        "Ġan",
        "t"
      ],
      [
        "Ġpro",
        "ject"
      ],
      [
        "ag",
        "n"
      ],
      [
        "m",
        "e"
      ],
      [
        "are",
        "nt"
      ],
      [
        "Ġc",
        "ap"
      ],
      [
        "Ġke",
        "ep"
      ],
      [
        "en",
        "se"
      ],
      [
        "W",
        "hat"
      ],
      [
        "ab",
        "ility"
      ],
      [
        "l",
        "ish"
      ],
      [
        "or",
        "n"
      ],
      [
        "Ġbet",
        "ter"
      ],
      [
        "Ġl",
        "ow"
      ],
      [
        "Ġm",
        "us"
      ],
      [
        "Ġw",
        "omen"
      ],
      [
        "Ġm",
        "ethod"
      ],
      [
        "ĠHow",
        "ever"
      ],
      [
        "Ġpro",
        "per"
      ],
      [
        "i",
        "or"
      ],
      [
        "w",
        "ays"
      ],
      [
        "if",
        "y"
      ],
      [
        "Ġen",
        "g"
      ],
      [
        "Ġm",
        "ark"
      ],
      [
        "an",
        "k"
      ],
      [
        "Ġfe",
        "el"
      ],
      [
        "Ġbec",
        "ome"
      ],
      [
        "ro",
        "du"
      ],
      [
        "Ġan",
        "al"
      ],
      [
        "ou",
        "n"
      ],
      [
        "er",
        "c"
      ],
      [
        "ĠE",
        "ng"
      ],
      [
        "Ġben",
        "ef"
      ],
      [
        "Ġn",
        "at"
      ],
      [
        "Ġs",
        "l"
      ],
      [
        "I",
        "t"
      ],
      [
        "Ġsa",
        "f"
      ],
      [
        "b",
        "ers"
      ],
      [
        "in",
        "ing"
      ],
      [
        "Ġc",
        "ause"
      ],
      [
        "Ġme",
        "as"
      ],
      [
        "Ġp",
        "ass"
      ],
      [
        "Ġc",
        "ult"
      ],
      [
        "Ġint",
        "erest"
      ],
      [
        "Ġd",
        "irect"
      ],
      [
        "Ġan",
        "other"
      ],
      [
        "at",
        "ic"
      ],
      [
        "iv",
        "ed"
      ],
      [
        "Ġcont",
        "rol"
      ],
      [
        "olog",
        "ical"
      ],
      [
        "Ġare",
        "a"
      ],
      [
        "Ġb",
        "as"
      ],
      [
        "Ġm",
        "ill"
      ],
      [
        "ĠD",
        "e"
      ],
      [
        "i",
        "ents"
      ],
      [
        "Ġme",
        "ans"
      ],
      [
        "Ġre",
        "st"
      ],
      [
        "Ġto",
        "p"
      ],
      [
        "j",
        "or"
      ],
      [
        "Ġo",
        "pp"
      ],
      [
        "r",
        "is"
      ],
      [
        "Ġpl",
        "ant"
      ],
      [
        "Ġbel",
        "ie"
      ],
      [
        "Ġper",
        "form"
      ],
      [
        "u",
        "g"
      ],
      [
        "Ġe",
        "conom"
      ],
      [
        "Ġto",
        "o"
      ],
      [
        "Ġa",
        "ffect"
      ],
      [
        "if",
        "ied"
      ],
      [
        "at",
        "s"
      ],
      [
        "our",
        "ce"
      ],
      [
        "Ġm",
        "ove"
      ],
      [
        "Ġan",
        "im"
      ],
      [
        "Ġor",
        "der"
      ],
      [
        "cc",
        "ess"
      ],
      [
        "o",
        "id"
      ],
      [
        "ent",
        "ly"
      ],
      [
        "ĠA",
        "d"
      ],
      [
        "Ġre",
        "al"
      ],
      [
        "ĠW",
        "h"
      ],
      [
        "Ġle",
        "g"
      ],
      [
        "Ġha",
        "pp"
      ],
      [
        "Ġprov",
        "ide"
      ],
      [
        "Ġse",
        "ver"
      ],
      [
        "v",
        "iew"
      ],
      [
        "er",
        "n"
      ],
      [
        "Ġb",
        "us"
      ],
      [
        "e",
        "ed"
      ],
      [
        "Ġo",
        "ld"
      ],
      [
        "Ġin",
        "du"
      ],
      [
        "pl",
        "es"
      ],
      [
        "iel",
        "d"
      ],
      [
        "og",
        "n"
      ],
      [
        "Ġp",
        "ar"
      ],
      [
        "Ġfam",
        "ily"
      ],
      [
        "Ġab",
        "le"
      ],
      [
        "Ġinf",
        "l"
      ],
      [
        "i",
        "k"
      ],
      [
        "t",
        "ain"
      ],
      [
        "ĠâĢ",
        "Ķ"
      ],
      [
        "s",
        "c"
      ],
      [
        "p",
        "ect"
      ],
      [
        "Ġo",
        "per"
      ],
      [
        "ĠW",
        "hen"
      ],
      [
        "Ġtreat",
        "ment"
      ],
      [
        "Ġ",
        "ess"
      ],
      [
        "Ġocc",
        "ur"
      ],
      [
        "Ġth",
        "ings"
      ],
      [
        "ĠE",
        "x"
      ],
      [
        "ent",
        "ion"
      ],
      [
        "m",
        "an"
      ],
      [
        "t",
        "o"
      ],
      [
        "Ġadd",
        "ition"
      ],
      [
        "Ġt",
        "re"
      ],
      [
        "Ġdes",
        "c"
      ],
      [
        "Ġother",
        "s"
      ],
      [
        "Ġme",
        "an"
      ],
      [
        "or",
        "ies"
      ],
      [
        "er",
        "al"
      ],
      [
        "Ġimp",
        "act"
      ],
      [
        "Ġbe",
        "g"
      ],
      [
        "ĠR",
        "e"
      ],
      [
        "Ġh",
        "ig"
      ],
      [
        "Ġhe",
        "re"
      ],
      [
        "Ġe",
        "le"
      ],
      [
        "Ġear",
        "ly"
      ],
      [
        "Ġl",
        "aw"
      ],
      [
        "Ġl",
        "angu"
      ],
      [
        "Ġc",
        "al"
      ],
      [
        "Ġposs",
        "ible"
      ],
      [
        "Ġsec",
        "ond"
      ],
      [
        "a",
        "z"
      ],
      [
        "Ġpartic",
        "ular"
      ],
      [
        "Ġma",
        "jor"
      ],
      [
        "ĠS",
        "h"
      ],
      [
        "Ġcur",
        "rent"
      ],
      [
        "Ġf",
        "in"
      ],
      [
        "ail",
        "able"
      ],
      [
        "Ġgrou",
        "p"
      ],
      [
        "ar",
        "c"
      ],
      [
        "he",
        "re"
      ],
      [
        "Ġsign",
        "ific"
      ],
      [
        "Ġagain",
        "st"
      ],
      [
        "Ġl",
        "ast"
      ],
      [
        "Ġf",
        "ore"
      ],
      [
        "Ġinv",
        "ol"
      ],
      [
        "Ġpre",
        "vent"
      ],
      [
        "i",
        "ans"
      ],
      [
        "Ġacc",
        "ess"
      ],
      [
        "oc",
        "us"
      ],
      [
        "Ġgovern",
        "ment"
      ],
      [
        "Ġt",
        "er"
      ],
      [
        "ic",
        "le"
      ],
      [
        "c",
        "le"
      ],
      [
        "is",
        "ion"
      ],
      [
        "ĠW",
        "hat"
      ],
      [
        "Ġper",
        "iod"
      ],
      [
        "ĠT",
        "o"
      ],
      [
        "in",
        "a"
      ],
      [
        "el",
        "f"
      ],
      [
        "Ġde",
        "v"
      ],
      [
        "ard",
        "s"
      ],
      [
        "ĠUn",
        "iversity"
      ],
      [
        "Ġprog",
        "ram"
      ],
      [
        "ĠAmeric",
        "an"
      ],
      [
        "t",
        "on"
      ],
      [
        "p",
        "ar"
      ],
      [
        "c",
        "ing"
      ],
      [
        "h",
        "or"
      ],
      [
        "u",
        "se"
      ],
      [
        "Ġl",
        "im"
      ],
      [
        "Ġspec",
        "ies"
      ],
      [
        "ot",
        "s"
      ],
      [
        "ĠR",
        "es"
      ],
      [
        "Ġc",
        "ost"
      ],
      [
        "id",
        "ence"
      ],
      [
        "Ġn",
        "on"
      ],
      [
        "Ġv",
        "ir"
      ],
      [
        "ĠC",
        "l"
      ],
      [
        "Ġd",
        "el"
      ],
      [
        "Ġpro",
        "m"
      ],
      [
        "Ġb",
        "ased"
      ],
      [
        "l",
        "ished"
      ],
      [
        "Ġtyp",
        "e"
      ],
      [
        "Ġsever",
        "al"
      ],
      [
        "Ġhist",
        "ory"
      ],
      [
        "Ġf",
        "ac"
      ],
      [
        "Ġc",
        "reat"
      ],
      [
        "pl",
        "oy"
      ],
      [
        "Ġd",
        "ue"
      ],
      [
        "end",
        "s"
      ],
      [
        "Ġcon",
        "d"
      ],
      [
        "I",
        "f"
      ],
      [
        "ot",
        "e"
      ],
      [
        "Ġu",
        "nt"
      ],
      [
        "Ġw",
        "ar"
      ],
      [
        "a",
        "per"
      ],
      [
        "p",
        "ort"
      ],
      [
        "Ġs",
        "ay"
      ],
      [
        "Ġa",
        "ge"
      ],
      [
        "l",
        "ing"
      ],
      [
        "an",
        "ces"
      ],
      [
        "ĠP",
        "l"
      ],
      [
        "il",
        "ar"
      ],
      [
        "u",
        "rop"
      ],
      [
        "Ġcon",
        "n"
      ],
      [
        "Ġt",
        "imes"
      ],
      [
        "Ġcount",
        "ry"
      ],
      [
        "Ġwe",
        "e"
      ],
      [
        "Ġm",
        "il"
      ],
      [
        "Ġ",
        "Z"
      ],
      [
        "or",
        "th"
      ],
      [
        "Ġare",
        "as"
      ],
      [
        "Ġl",
        "ist"
      ],
      [
        "s",
        "y"
      ],
      [
        "Ġor",
        "ig"
      ],
      [
        "Ġf",
        "re"
      ],
      [
        "Ġe",
        "l"
      ],
      [
        "on",
        "es"
      ],
      [
        "ĠUn",
        "ited"
      ],
      [
        "Ġc",
        "ase"
      ],
      [
        "Ġop",
        "en"
      ],
      [
        "Ġlevel",
        "s"
      ],
      [
        "Ġs",
        "ince"
      ],
      [
        "W",
        "e"
      ],
      [
        "Ġch",
        "o"
      ],
      [
        "ur",
        "ther"
      ],
      [
        "Ġam",
        "ount"
      ],
      [
        "H",
        "ow"
      ],
      [
        "Ġin",
        "tern"
      ],
      [
        "Ġnat",
        "ural"
      ],
      [
        "un",
        "e"
      ],
      [
        "at",
        "or"
      ],
      [
        "Ġcom",
        "e"
      ],
      [
        "ress",
        "ion"
      ],
      [
        "om",
        "p"
      ],
      [
        "Ġ1",
        "5"
      ],
      [
        "Ġst",
        "ruct"
      ],
      [
        "r",
        "ist"
      ],
      [
        "Ġmon",
        "th"
      ],
      [
        "is",
        "ed"
      ],
      [
        "Ġp",
        "ress"
      ],
      [
        "Ġb",
        "i"
      ],
      [
        "Ġfollow",
        "ing"
      ],
      [
        "Ġf",
        "ocus"
      ],
      [
        "Ġf",
        "ree"
      ],
      [
        "Ġ",
        "."
      ],
      [
        "Ġh",
        "ard"
      ],
      [
        "ĠG",
        "od"
      ],
      [
        "Ġam",
        "ong"
      ],
      [
        "ic",
        "ult"
      ],
      [
        "Ġp",
        "ut"
      ],
      [
        "Ġ19",
        "9"
      ],
      [
        "Ġp",
        "ost"
      ],
      [
        "pt",
        "oms"
      ],
      [
        "Ġb",
        "ir"
      ],
      [
        "Ġl",
        "o"
      ],
      [
        "end",
        "ed"
      ],
      [
        "iss",
        "ion"
      ],
      [
        "th",
        "ough"
      ],
      [
        "Ġg",
        "r"
      ],
      [
        "Ġsignific",
        "ant"
      ],
      [
        "Ġindu",
        "st"
      ],
      [
        "w",
        "ork"
      ],
      [
        "Ġl",
        "ab"
      ],
      [
        "Ġc",
        "ertain"
      ],
      [
        "Ġproble",
        "m"
      ],
      [
        "Ġne",
        "ar"
      ],
      [
        "Ġm",
        "ult"
      ],
      [
        "am",
        "p"
      ],
      [
        "ort",
        "un"
      ],
      [
        "Ġav",
        "ailable"
      ],
      [
        "an",
        "e"
      ],
      [
        "Ġcons",
        "um"
      ],
      [
        "eth",
        "ing"
      ],
      [
        "Ġ",
        "Q"
      ],
      [
        "ĠC",
        "an"
      ],
      [
        "Ġf",
        "low"
      ],
      [
        "Ġob",
        "ject"
      ],
      [
        "Ġhe",
        "ad"
      ],
      [
        "Ġhe",
        "art"
      ],
      [
        "ut",
        "ure"
      ],
      [
        "re",
        "t"
      ],
      [
        "Ġr",
        "un"
      ],
      [
        "age",
        "ment"
      ],
      [
        "urop",
        "e"
      ],
      [
        "Ġh",
        "y"
      ],
      [
        "Ġm",
        "aking"
      ],
      [
        "Ġlike",
        "ly"
      ],
      [
        "os",
        "p"
      ],
      [
        "Ġexper",
        "ience"
      ],
      [
        "Ġn",
        "ame"
      ],
      [
        "Ġsc",
        "ient"
      ],
      [
        "Ġm",
        "ar"
      ],
      [
        "Ġm",
        "en"
      ],
      [
        "Ġproble",
        "ms"
      ],
      [
        "ĠC",
        "ol"
      ],
      [
        "Ġass",
        "oci"
      ],
      [
        "Ġ",
        "["
      ],
      [
        "Ġal",
        "ways"
      ],
      [
        "o",
        "ks"
      ],
      [
        "led",
        "ge"
      ],
      [
        "ab",
        "ly"
      ],
      [
        "w",
        "w"
      ],
      [
        "o",
        "int"
      ],
      [
        "Ġbeh",
        "av"
      ],
      [
        "b",
        "e"
      ],
      [
        "Ġper",
        "cent"
      ],
      [
        "ate",
        "ly"
      ],
      [
        "Ġyou",
        "ng"
      ],
      [
        "Ġpot",
        "ential"
      ],
      [
        "Ġsh",
        "ort"
      ],
      [
        "Ġincre",
        "ase"
      ],
      [
        "o",
        "le"
      ],
      [
        "Ġv",
        "ol"
      ],
      [
        "Ġloc",
        "al"
      ],
      [
        "Ġb",
        "ook"
      ],
      [
        "r",
        "ing"
      ],
      [
        "ĠS",
        "e"
      ],
      [
        "ĠB",
        "e"
      ],
      [
        "Ġneed",
        "s"
      ],
      [
        "Ġc",
        "ir"
      ],
      [
        "Ġtechn",
        "ology"
      ],
      [
        "ic",
        "ation"
      ],
      [
        "Ġfun",
        "ction"
      ],
      [
        "Ġsom",
        "ething"
      ],
      [
        "Ġc",
        "r"
      ],
      [
        "Ġf",
        "our"
      ],
      [
        "Ġwor",
        "ks"
      ],
      [
        "Ġre",
        "ce"
      ],
      [
        "ec",
        "ially"
      ],
      [
        "Ġinv",
        "est"
      ],
      [
        "Ġsu",
        "ccess"
      ],
      [
        "Ġb",
        "ro"
      ],
      [
        "Ġlit",
        "tle"
      ],
      [
        "o",
        "x"
      ],
      [
        "A",
        "s"
      ],
      [
        "Ġcre",
        "ate"
      ],
      [
        "b",
        "r"
      ],
      [
        "1",
        "1"
      ],
      [
        "Ġwh",
        "y"
      ],
      [
        "Ġ1",
        "2"
      ],
      [
        "Ġus",
        "ually"
      ],
      [
        "Ġsystem",
        "s"
      ],
      [
        "o",
        "ver"
      ],
      [
        "Ġeffect",
        "ive"
      ],
      [
        "Ġv",
        "iew"
      ],
      [
        "Ġle",
        "t"
      ],
      [
        "Ġs",
        "w"
      ],
      [
        "Ġcomp",
        "ut"
      ],
      [
        "ĠE",
        "urope"
      ],
      [
        "Ġp",
        "arent"
      ],
      [
        "op",
        "e"
      ],
      [
        "ic",
        "ro"
      ],
      [
        "Ġcom",
        "b"
      ],
      [
        "Ġresult",
        "s"
      ],
      [
        "p",
        "or"
      ],
      [
        "end",
        "ing"
      ],
      [
        "Ġte",
        "ac"
      ],
      [
        "Ġcommun",
        "ity"
      ],
      [
        "Ġf",
        "ar"
      ],
      [
        "at",
        "ory"
      ],
      [
        "Ġcell",
        "s"
      ],
      [
        "Ġdiff",
        "icult"
      ],
      [
        "Ġt",
        "urn"
      ],
      [
        "gg",
        "est"
      ],
      [
        "Ġe",
        "y"
      ],
      [
        "id",
        "es"
      ],
      [
        "ĠE",
        "n"
      ],
      [
        "Ġcond",
        "itions"
      ],
      [
        "Ġimpro",
        "ve"
      ],
      [
        "Ġlangu",
        "age"
      ],
      [
        "Ġprof",
        "ess"
      ],
      [
        "Ġspec",
        "ific"
      ],
      [
        "Ġb",
        "rain"
      ],
      [
        "Ġsym",
        "ptoms"
      ],
      [
        "Ġg",
        "ive"
      ],
      [
        "The",
        "re"
      ],
      [
        "Ġd",
        "ays"
      ],
      [
        "our",
        "s"
      ],
      [
        "ĠB",
        "l"
      ],
      [
        "ĠU",
        "S"
      ],
      [
        "Ġbus",
        "iness"
      ],
      [
        "ac",
        "c"
      ],
      [
        "esp",
        "ecially"
      ],
      [
        "ĠSt",
        "ates"
      ],
      [
        "Ġtem",
        "per"
      ],
      [
        "Ġd",
        "am"
      ],
      [
        "am",
        "es"
      ],
      [
        "Ġf",
        "uture"
      ],
      [
        "Ġal",
        "ong"
      ],
      [
        "it",
        "her"
      ],
      [
        "n",
        "ot"
      ],
      [
        "Ġde",
        "ath"
      ],
      [
        "Ġtyp",
        "es"
      ],
      [
        "Ġf",
        "il"
      ],
      [
        "Ġs",
        "ays"
      ],
      [
        "Ġto",
        "day"
      ],
      [
        "Ġen",
        "c"
      ],
      [
        "ĠA",
        "f"
      ],
      [
        "Ġpl",
        "ants"
      ],
      [
        "ĠC",
        "omm"
      ],
      [
        "Ġt",
        "ry"
      ],
      [
        "Ġg",
        "iven"
      ],
      [
        "Ġcont",
        "ain"
      ],
      [
        "ure",
        "d"
      ],
      [
        "Ġwork",
        "ing"
      ],
      [
        "ĠT",
        "e"
      ],
      [
        "as",
        "ing"
      ],
      [
        "ĠA",
        "t"
      ],
      [
        "Ġunt",
        "il"
      ],
      [
        "Ġac",
        "ross"
      ],
      [
        "Ġdet",
        "erm"
      ],
      [
        "le",
        "ep"
      ],
      [
        "Ġcour",
        "se"
      ],
      [
        "Ġsu",
        "ggest"
      ],
      [
        "Ġeduc",
        "ation"
      ],
      [
        "he",
        "m"
      ],
      [
        "Ġvar",
        "ious"
      ],
      [
        "g",
        "ed"
      ],
      [
        "as",
        "ter"
      ],
      [
        "ap",
        "e"
      ],
      [
        "Ġm",
        "ind"
      ],
      [
        "il",
        "ities"
      ],
      [
        "ĠS",
        "o"
      ],
      [
        "ate",
        "g"
      ],
      [
        "Ġrep",
        "res"
      ],
      [
        "Ġwor",
        "ds"
      ],
      [
        "Ġcle",
        "ar"
      ],
      [
        "Ġcount",
        "ries"
      ],
      [
        "Ġchar",
        "acter"
      ],
      [
        "Ġhig",
        "her"
      ],
      [
        "Ġ",
        "0"
      ],
      [
        "ĠO",
        "r"
      ],
      [
        "Ġapp",
        "lic"
      ],
      [
        "Ġs",
        "ing"
      ],
      [
        "1",
        "2"
      ],
      [
        "Ġpol",
        "it"
      ],
      [
        "Ġ1",
        "7"
      ],
      [
        "Ġsim",
        "ilar"
      ],
      [
        "Ġre",
        "le"
      ],
      [
        "Ġw",
        "ays"
      ],
      [
        "Ġeffect",
        "s"
      ],
      [
        "one",
        "y"
      ],
      [
        "Ġpop",
        "ulation"
      ],
      [
        "Ġm",
        "ot"
      ],
      [
        "Ġn",
        "et"
      ],
      [
        "Ġstr",
        "ong"
      ],
      [
        "f",
        "ace"
      ],
      [
        "v",
        "ious"
      ],
      [
        "o",
        "f"
      ],
      [
        "Ġto",
        "ol"
      ],
      [
        "Ġ",
        "especially"
      ],
      [
        "ra",
        "ph"
      ],
      [
        "ak",
        "en"
      ],
      [
        "ru",
        "g"
      ],
      [
        "Ġsp",
        "ace"
      ],
      [
        "1",
        "8"
      ],
      [
        "get",
        "her"
      ],
      [
        "Ġto",
        "gether"
      ],
      [
        "ĠW",
        "or"
      ],
      [
        "Ġp",
        "ast"
      ],
      [
        "us",
        "h"
      ],
      [
        "at",
        "ors"
      ],
      [
        "at",
        "ch"
      ],
      [
        "Ġd",
        "ra"
      ],
      [
        "s",
        "w"
      ],
      [
        "Ġspec",
        "ial"
      ],
      [
        "Ġob",
        "s"
      ],
      [
        "le",
        "ment"
      ],
      [
        "Ġpat",
        "ients"
      ],
      [
        "ĠO",
        "n"
      ],
      [
        "em",
        "ber"
      ],
      [
        "Ġc",
        "rit"
      ],
      [
        "Ġcomple",
        "te"
      ],
      [
        "Ġl",
        "ater"
      ],
      [
        "Ġne",
        "cess"
      ],
      [
        "Ġchang",
        "es"
      ],
      [
        "ri",
        "ed"
      ],
      [
        "ob",
        "al"
      ],
      [
        "ap",
        "s"
      ],
      [
        "a",
        "f"
      ],
      [
        "ĠA",
        "ll"
      ],
      [
        "ĠC",
        "ent"
      ],
      [
        "Ġte",
        "am"
      ],
      [
        "Ġke",
        "y"
      ],
      [
        "Ġbeg",
        "in"
      ],
      [
        "Ġd",
        "ig"
      ],
      [
        "5",
        "0"
      ],
      [
        "Ġt",
        "erm"
      ],
      [
        "p",
        "r"
      ],
      [
        "Ġas",
        "k"
      ],
      [
        "Ġsk",
        "ills"
      ],
      [
        "ĠP",
        "h"
      ],
      [
        "Ġdisc",
        "uss"
      ],
      [
        "Ġl",
        "ower"
      ],
      [
        "Ġphys",
        "ical"
      ],
      [
        "Ġen",
        "ough"
      ],
      [
        "ac",
        "es"
      ],
      [
        "Ġresp",
        "ons"
      ],
      [
        "Ġch",
        "all"
      ],
      [
        "Ġ",
        "er"
      ],
      [
        "Ġne",
        "xt"
      ],
      [
        "Ġgo",
        "ing"
      ],
      [
        "ar",
        "ing"
      ],
      [
        "em",
        "s"
      ],
      [
        "Ġen",
        "s"
      ],
      [
        "Ġn",
        "ut"
      ],
      [
        "ol",
        "ution"
      ],
      [
        "Ġc",
        "y"
      ],
      [
        "ĠN",
        "ational"
      ],
      [
        "Ġprot",
        "ect"
      ],
      [
        "Ġo",
        "pt"
      ],
      [
        "Ġapp",
        "ear"
      ],
      [
        "t",
        "al"
      ],
      [
        "Ġs",
        "elf"
      ],
      [
        "id",
        "d"
      ],
      [
        "th",
        "ing"
      ],
      [
        "sel",
        "ves"
      ],
      [
        "Ġsu",
        "re"
      ],
      [
        "Ġab",
        "ove"
      ],
      [
        "Ġc",
        "ases"
      ],
      [
        "Ġk",
        "ind"
      ],
      [
        "l",
        "er"
      ],
      [
        "Ġaw",
        "ay"
      ],
      [
        "Ġqu",
        "ality"
      ],
      [
        "om",
        "es"
      ],
      [
        "et",
        "ic"
      ],
      [
        "Ġcan",
        "cer"
      ],
      [
        "S",
        "t"
      ],
      [
        "Ġst",
        "ep"
      ],
      [
        "Ġ",
        "ill"
      ],
      [
        "ab",
        "les"
      ],
      [
        "Ġrel",
        "ations"
      ],
      [
        "Ġmill",
        "ion"
      ],
      [
        "ach",
        "ing"
      ],
      [
        "Ġstud",
        "ies"
      ],
      [
        "Ġha",
        "ving"
      ],
      [
        "ru",
        "ction"
      ],
      [
        "Ġex",
        "ist"
      ],
      [
        "/",
        "/"
      ],
      [
        "Ġcent",
        "ury"
      ],
      [
        "Ġche",
        "m"
      ],
      [
        "s",
        "p"
      ],
      [
        "i",
        "ation"
      ],
      [
        "Ġg",
        "re"
      ],
      [
        "av",
        "es"
      ],
      [
        "ch",
        "ie"
      ],
      [
        "iqu",
        "e"
      ],
      [
        "it",
        "ing"
      ],
      [
        "m",
        "ost"
      ],
      [
        "n",
        "al"
      ],
      [
        "s",
        "ide"
      ],
      [
        "st",
        "it"
      ],
      [
        "c",
        "ul"
      ],
      [
        "ys",
        "is"
      ],
      [
        "Ġs",
        "ide"
      ],
      [
        "Ġdesc",
        "rib"
      ],
      [
        "rib",
        "ut"
      ],
      [
        "Ġle",
        "ast"
      ],
      [
        "ore",
        "d"
      ],
      [
        "Ġm",
        "akes"
      ],
      [
        "ĠCh",
        "rist"
      ],
      [
        "Ġl",
        "ive"
      ],
      [
        "Ġs",
        "ens"
      ],
      [
        "am",
        "m"
      ],
      [
        "Ġknow",
        "ledge"
      ],
      [
        "Ġprodu",
        "ction"
      ],
      [
        "Ġproduct",
        "s"
      ],
      [
        "Ġgrow",
        "th"
      ],
      [
        "y",
        "m"
      ],
      [
        "Ġ",
        "z"
      ],
      [
        "i",
        "res"
      ],
      [
        "Ġconsid",
        "er"
      ],
      [
        "ire",
        "d"
      ],
      [
        "Ġb",
        "ig"
      ],
      [
        "Ġl",
        "ine"
      ],
      [
        "ort",
        "s"
      ],
      [
        "Ġ1",
        "6"
      ],
      [
        "m",
        "in"
      ],
      [
        "Ġra",
        "d"
      ],
      [
        "Ġl",
        "ot"
      ],
      [
        "Ġne",
        "ver"
      ],
      [
        "ra",
        "y"
      ],
      [
        "Ġro",
        "le"
      ],
      [
        ":",
        "//"
      ],
      [
        "Ġst",
        "ress"
      ],
      [
        "ac",
        "y"
      ],
      [
        "..",
        "."
      ],
      [
        "Ġactiv",
        "ities"
      ],
      [
        "w",
        "are"
      ],
      [
        "Ġaut",
        "hor"
      ],
      [
        "ĠAf",
        "ric"
      ],
      [
        "Ġem",
        "ploy"
      ],
      [
        "n",
        "ed"
      ],
      [
        "Ġrese",
        "arc"
      ],
      [
        "g",
        "es"
      ],
      [
        "du",
        "ct"
      ],
      [
        "Ġr",
        "ange"
      ],
      [
        "Ġval",
        "ue"
      ],
      [
        "I",
        "D"
      ],
      [
        "ĠW",
        "ith"
      ],
      [
        "Ġm",
        "ov"
      ],
      [
        "Ġhow",
        "ever"
      ],
      [
        "or",
        "ing"
      ],
      [
        "Ġrec",
        "ord"
      ],
      [
        "Ġl",
        "oss"
      ],
      [
        "Ġw",
        "r"
      ],
      [
        "Ġf",
        "ull"
      ],
      [
        "Ġne",
        "g"
      ],
      [
        "Ġre",
        "ason"
      ],
      [
        "f",
        "or"
      ],
      [
        "Ġsub",
        "ject"
      ],
      [
        "Ġacc",
        "ount"
      ],
      [
        "Ġh",
        "ouse"
      ],
      [
        "o",
        "ot"
      ],
      [
        "od",
        "e"
      ],
      [
        "Ġhealth",
        "y"
      ],
      [
        "Ġn",
        "orm"
      ],
      [
        "Ġinfl",
        "u"
      ],
      [
        "ĠS",
        "ome"
      ],
      [
        "Ġbe",
        "low"
      ],
      [
        "Ġp",
        "aper"
      ],
      [
        "Ġredu",
        "ce"
      ],
      [
        "Ġt",
        "ru"
      ],
      [
        "al",
        "es"
      ],
      [
        "read",
        "y"
      ],
      [
        "Ġf",
        "urther"
      ],
      [
        "ĠM",
        "ed"
      ],
      [
        "Ġpr",
        "im"
      ],
      [
        "ĠB",
        "rit"
      ],
      [
        "b",
        "on"
      ],
      [
        "il",
        "t"
      ],
      [
        "f",
        "act"
      ],
      [
        "om",
        "an"
      ],
      [
        "m",
        "it"
      ],
      [
        "Ġgener",
        "al"
      ],
      [
        "Ġ",
        "$"
      ],
      [
        "Ġwhe",
        "ther"
      ],
      [
        "Ġcol",
        "le"
      ],
      [
        "u",
        "ation"
      ],
      [
        "sy",
        "ch"
      ],
      [
        "un",
        "g"
      ],
      [
        "'",
        "t"
      ],
      [
        "ĠC",
        "O"
      ],
      [
        "âĢ",
        "¦"
      ],
      [
        "a",
        "pt"
      ],
      [
        "Ġpol",
        "ic"
      ],
      [
        "Ġiss",
        "ues"
      ],
      [
        "Ġa",
        "chie"
      ],
      [
        "1",
        "6"
      ],
      [
        "1",
        "5"
      ],
      [
        "Ġres",
        "ources"
      ],
      [
        "A",
        "n"
      ],
      [
        "ĠG",
        "erm"
      ],
      [
        "Ġpre",
        "d"
      ],
      [
        "it",
        "es"
      ],
      [
        "Ġcon",
        "cer"
      ],
      [
        "ou",
        "ra"
      ],
      [
        "Ġest",
        "ab"
      ],
      [
        "ific",
        "ation"
      ],
      [
        "Ġrec",
        "omm"
      ],
      [
        "is",
        "c"
      ],
      [
        "Ġactiv",
        "ity"
      ],
      [
        "F",
        "or"
      ],
      [
        "W",
        "hen"
      ],
      [
        "ĠF",
        "r"
      ],
      [
        "a",
        "ut"
      ],
      [
        "Ġpro",
        "p"
      ],
      [
        "am",
        "in"
      ],
      [
        "n",
        "s"
      ],
      [
        "ver",
        "age"
      ],
      [
        "ip",
        "le"
      ],
      [
        "u",
        "ment"
      ],
      [
        "al",
        "f"
      ],
      [
        "em",
        "ic"
      ],
      [
        "at",
        "ures"
      ],
      [
        "ĠTh",
        "at"
      ],
      [
        "Ġso",
        "il"
      ],
      [
        "Ġmod",
        "el"
      ],
      [
        "ist",
        "ic"
      ],
      [
        "3",
        "0"
      ],
      [
        "Ġal",
        "ready"
      ],
      [
        "ĠE",
        "ar"
      ],
      [
        "Ġmed",
        "ical"
      ],
      [
        "os",
        "is"
      ],
      [
        "b",
        "y"
      ],
      [
        "er",
        "y"
      ],
      [
        "Ġrec",
        "ogn"
      ],
      [
        "l",
        "o"
      ],
      [
        "ib",
        "ility"
      ],
      [
        "Ġmark",
        "et"
      ],
      [
        "ĠHe",
        "alth"
      ],
      [
        "Ġle",
        "ft"
      ],
      [
        "Ġsu",
        "m"
      ],
      [
        "et",
        "imes"
      ],
      [
        "en",
        "cy"
      ],
      [
        "Ġto",
        "ward"
      ],
      [
        "Ġsc",
        "ience"
      ],
      [
        "Ġre",
        "ally"
      ],
      [
        "Ġdi",
        "et"
      ],
      [
        "Ġpartic",
        "ip"
      ],
      [
        "Ġs",
        "leep"
      ],
      [
        "Ġc",
        "ity"
      ],
      [
        "Ġst",
        "ory"
      ],
      [
        "Ġbuild",
        "ing"
      ],
      [
        "Ġquest",
        "ion"
      ],
      [
        "Ġind",
        "ic"
      ],
      [
        "Ġ",
        "ur"
      ],
      [
        "Ġd",
        "one"
      ],
      [
        "Ġpress",
        "ure"
      ],
      [
        "Ġab",
        "s"
      ],
      [
        "Ġquest",
        "ions"
      ],
      [
        "a",
        "e"
      ],
      [
        "Ġr",
        "ate"
      ],
      [
        "Ġ3",
        "0"
      ],
      [
        "Ġfl",
        "u"
      ],
      [
        "ot",
        "t"
      ],
      [
        "a",
        "pp"
      ],
      [
        "Ġsk",
        "in"
      ],
      [
        "i",
        "ol"
      ],
      [
        "Ġcir",
        "c"
      ],
      [
        "Ġf",
        "all"
      ],
      [
        "ĠEng",
        "lish"
      ],
      [
        "b",
        "o"
      ],
      [
        "iv",
        "ity"
      ],
      [
        "ain",
        "ed"
      ],
      [
        "2",
        "00"
      ],
      [
        "le",
        "t"
      ],
      [
        "Ġcl",
        "ose"
      ],
      [
        "ĠO",
        "ne"
      ],
      [
        "Ġopp",
        "ortun"
      ],
      [
        "Ġf",
        "und"
      ],
      [
        "Ġexper",
        "ien"
      ],
      [
        "Ġcom",
        "es"
      ],
      [
        "ed",
        "i"
      ],
      [
        "Ġs",
        "ource"
      ],
      [
        "Ġgrou",
        "ps"
      ],
      [
        "en",
        "ing"
      ],
      [
        "Ġse",
        "en"
      ],
      [
        "i",
        "pp"
      ],
      [
        "et",
        "y"
      ],
      [
        "Ġdevelop",
        "ed"
      ],
      [
        "Ġcon",
        "cept"
      ],
      [
        "re",
        "l"
      ],
      [
        "Ġrepres",
        "ent"
      ],
      [
        "Ġo",
        "il"
      ],
      [
        "ĠW",
        "ar"
      ],
      [
        "Ġh",
        "tt"
      ],
      [
        "Ġd",
        "og"
      ],
      [
        "Ġe",
        "ither"
      ],
      [
        "ĠG",
        "o"
      ],
      [
        "as",
        "k"
      ],
      [
        "ĠI",
        "m"
      ],
      [
        "Ġcl",
        "imate"
      ],
      [
        "Ġwho",
        "le"
      ],
      [
        "Ġp",
        "ay"
      ],
      [
        "Ġwor",
        "d"
      ],
      [
        "Ġpract",
        "ice"
      ],
      [
        "Ġwe",
        "ight"
      ],
      [
        "Ġconsid",
        "ered"
      ],
      [
        "Ġde",
        "g"
      ],
      [
        "Ġd",
        "rug"
      ],
      [
        "ĠT",
        "r"
      ],
      [
        "ur",
        "ity"
      ],
      [
        "ĠL",
        "e"
      ],
      [
        "Ġr",
        "ather"
      ],
      [
        "Ġrelations",
        "hip"
      ],
      [
        "ĠWor",
        "ld"
      ],
      [
        "Ġsim",
        "ple"
      ],
      [
        "Ġav",
        "oid"
      ],
      [
        "Ġbec",
        "ame"
      ],
      [
        "re",
        "am"
      ],
      [
        "Ġex",
        "erc"
      ],
      [
        "Ġf",
        "at"
      ],
      [
        "1",
        "4"
      ],
      [
        "Ġte",
        "xt"
      ],
      [
        "1",
        "7"
      ],
      [
        "Ġart",
        "icle"
      ],
      [
        "Ġtra",
        "dition"
      ],
      [
        "Ġint",
        "rodu"
      ],
      [
        "ip",
        "s"
      ],
      [
        "Ġunderstand",
        "ing"
      ],
      [
        "Ġst",
        "at"
      ],
      [
        "Ġm",
        "ass"
      ],
      [
        "Ġcon",
        "dition"
      ],
      [
        "ĠA",
        "m"
      ],
      [
        "is",
        "on"
      ],
      [
        "Ġqu",
        "ick"
      ],
      [
        "Ġf",
        "ri"
      ],
      [
        "Ġd",
        "om"
      ],
      [
        "Ġab",
        "ility"
      ],
      [
        "u",
        "ed"
      ],
      [
        "Ġph",
        "ot"
      ],
      [
        "on",
        "t"
      ],
      [
        "an",
        "n"
      ],
      [
        "p",
        "ut"
      ],
      [
        "Ġre",
        "d"
      ],
      [
        "Ġg",
        "round"
      ],
      [
        "ro",
        "ll"
      ],
      [
        "Ġe",
        "ff"
      ],
      [
        "Ġcol",
        "lect"
      ],
      [
        "a",
        "im"
      ],
      [
        "Ġan",
        "sw"
      ],
      [
        "ir",
        "d"
      ],
      [
        "ere",
        "nce"
      ],
      [
        "ĠS",
        "he"
      ],
      [
        "Ġsing",
        "le"
      ],
      [
        "Ġfre",
        "qu"
      ],
      [
        "Ġw",
        "ind"
      ],
      [
        "Ġess",
        "ential"
      ],
      [
        "Ġon",
        "ce"
      ],
      [
        "Ġs",
        "ound"
      ],
      [
        "Ġw",
        "ide"
      ],
      [
        "ĠD",
        "o"
      ],
      [
        "and",
        "s"
      ],
      [
        "Ġad",
        "ult"
      ],
      [
        "ĠJ",
        "oh"
      ],
      [
        "Ġon",
        "line"
      ],
      [
        "f",
        "er"
      ],
      [
        "Ġc",
        "ut"
      ],
      [
        "Ġfe",
        "ed"
      ],
      [
        "Ġassoci",
        "ated"
      ],
      [
        "Ġwrit",
        "ing"
      ],
      [
        "N",
        "A"
      ],
      [
        "Ġev",
        "ent"
      ],
      [
        "Ġ1",
        "4"
      ],
      [
        "Ġfact",
        "ors"
      ],
      [
        "re",
        "ct"
      ],
      [
        "Ġman",
        "agement"
      ],
      [
        "pl",
        "ic"
      ],
      [
        ".",
        "\""
      ],
      [
        "h",
        "ing"
      ],
      [
        "le",
        "y"
      ],
      [
        "ĠA",
        "ust"
      ],
      [
        "Ġact",
        "ually"
      ],
      [
        "Ġf",
        "ail"
      ],
      [
        "Ġf",
        "ield"
      ],
      [
        "Ġsp",
        "e"
      ],
      [
        "Ġadd",
        "ress"
      ],
      [
        "Ġmaterial",
        "s"
      ],
      [
        "Ġcre",
        "ated"
      ],
      [
        "Ġl",
        "iving"
      ],
      [
        "ĠS",
        "outh"
      ],
      [
        "es",
        "c"
      ],
      [
        "Ġwee",
        "k"
      ],
      [
        "Ġincre",
        "ased"
      ],
      [
        "Ġc",
        "at"
      ],
      [
        "Y",
        "ou"
      ],
      [
        "Ġcan",
        "not"
      ],
      [
        "Ġwh",
        "ite"
      ],
      [
        "Ġsur",
        "face"
      ],
      [
        "Ġacc",
        "ording"
      ],
      [
        "Ġb",
        "at"
      ],
      [
        "1",
        "3"
      ],
      [
        "Ġthem",
        "selves"
      ],
      [
        "ag",
        "ing"
      ],
      [
        "Ġin",
        "it"
      ],
      [
        "r",
        "ate"
      ],
      [
        "Ġm",
        "icro"
      ],
      [
        "ffic",
        "ient"
      ],
      [
        "y",
        "n"
      ],
      [
        "Ġl",
        "ay"
      ],
      [
        "W",
        "h"
      ],
      [
        "Ġt",
        "ell"
      ],
      [
        "ĠIn",
        "tern"
      ],
      [
        "Ġanim",
        "als"
      ],
      [
        "Ġ",
        "ver"
      ],
      [
        "re",
        "me"
      ],
      [
        "ear",
        "ch"
      ],
      [
        "Ġh",
        "old"
      ],
      [
        "Ġs",
        "ize"
      ],
      [
        "Ġ",
        "="
      ],
      [
        "Ġn",
        "ature"
      ],
      [
        "v",
        "al"
      ],
      [
        "Ġme",
        "et"
      ],
      [
        "b",
        "ased"
      ],
      [
        "on",
        "st"
      ],
      [
        "au",
        "gh"
      ],
      [
        "Ġev",
        "idence"
      ],
      [
        "Ġin",
        "j"
      ],
      [
        "Ġstud",
        "ent"
      ],
      [
        "w",
        "ay"
      ],
      [
        "Ġneed",
        "ed"
      ],
      [
        "ĠM",
        "ar"
      ],
      [
        "ĠG",
        "en"
      ],
      [
        "Ġdet",
        "ail"
      ],
      [
        "ĠSt",
        "ud"
      ],
      [
        "se",
        "qu"
      ],
      [
        "our",
        "nal"
      ],
      [
        "ut",
        "ions"
      ],
      [
        "Ġdo",
        "ct"
      ],
      [
        "Ġrequire",
        "d"
      ],
      [
        "Ġn",
        "ational"
      ],
      [
        "Ġm",
        "ach"
      ],
      [
        "Ġmed",
        "ic"
      ],
      [
        "Ġs",
        "ent"
      ],
      [
        "Ġj",
        "ob"
      ],
      [
        "Ġparent",
        "s"
      ],
      [
        "Ġappro",
        "ach"
      ],
      [
        "Ġrel",
        "ated"
      ],
      [
        "Ġresearc",
        "hers"
      ],
      [
        ")",
        ":"
      ],
      [
        "ens",
        "ive"
      ],
      [
        "Ġf",
        "ive"
      ],
      [
        "ric",
        "t"
      ],
      [
        "Ġpur",
        "p"
      ],
      [
        "Ġread",
        "ing"
      ],
      [
        "Ġgl",
        "obal"
      ],
      [
        "ĠC",
        "ar"
      ],
      [
        "iv",
        "al"
      ],
      [
        "Ġdis",
        "ord"
      ],
      [
        "Ġpro",
        "b"
      ],
      [
        "Ġhelp",
        "s"
      ],
      [
        "Ġp",
        "ath"
      ],
      [
        "Ġcle",
        "an"
      ],
      [
        "Ġf",
        "ish"
      ],
      [
        "ic",
        "ial"
      ],
      [
        "Ġserv",
        "ices"
      ],
      [
        "Ġthe",
        "rap"
      ],
      [
        "Ġsu",
        "ff"
      ],
      [
        "Ġbenef",
        "its"
      ],
      [
        "ove",
        "red"
      ],
      [
        "Ġt",
        "aken"
      ],
      [
        "Ġs",
        "al"
      ],
      [
        "iv",
        "il"
      ],
      [
        "Ġpos",
        "itive"
      ],
      [
        "Ġbl",
        "ack"
      ],
      [
        "Ġso",
        "ft"
      ],
      [
        "u",
        "nt"
      ],
      [
        "T",
        "o"
      ],
      [
        "Ġperson",
        "al"
      ],
      [
        "ast",
        "ic"
      ],
      [
        "Ġobs",
        "erv"
      ],
      [
        "ĠA",
        "b"
      ],
      [
        "Ġeng",
        "ine"
      ],
      [
        "Ġsaf",
        "e"
      ],
      [
        "E",
        "R"
      ],
      [
        "Ġfam",
        "il"
      ],
      [
        "Ġcomp",
        "any"
      ],
      [
        "Ġass",
        "ess"
      ],
      [
        "l",
        "ight"
      ],
      [
        "Ġcomple",
        "x"
      ],
      [
        "or",
        "g"
      ],
      [
        "Ġpart",
        "s"
      ],
      [
        "re",
        "g"
      ],
      [
        "u",
        "le"
      ],
      [
        "Ġm",
        "oney"
      ],
      [
        "g",
        "ing"
      ],
      [
        "en",
        "ces"
      ],
      [
        "l",
        "ike"
      ],
      [
        "um",
        "p"
      ],
      [
        "Ġt",
        "ar"
      ],
      [
        "g",
        "est"
      ],
      [
        "ly",
        "ing"
      ],
      [
        "ur",
        "ch"
      ],
      [
        "r",
        "ated"
      ],
      [
        "m",
        "ber"
      ],
      [
        "Ġcol",
        "l"
      ],
      [
        "Ġide",
        "a"
      ],
      [
        "ĠD",
        "r"
      ],
      [
        "Ġcont",
        "ent"
      ],
      [
        "ag",
        "ed"
      ],
      [
        "ve",
        "re"
      ],
      [
        "Ġeconom",
        "ic"
      ],
      [
        "Ġindividual",
        "s"
      ],
      [
        "ep",
        "end"
      ],
      [
        "ĠA",
        "ss"
      ],
      [
        "ne",
        "y"
      ],
      [
        "Ġmain",
        "tain"
      ],
      [
        "Ġs",
        "am"
      ],
      [
        "Ġmod",
        "ern"
      ],
      [
        "Ġsu",
        "n"
      ],
      [
        "og",
        "raph"
      ],
      [
        "Ġg",
        "reen"
      ],
      [
        "Ġmonth",
        "s"
      ],
      [
        "Ġan",
        "n"
      ],
      [
        "Ġ",
        "'"
      ],
      [
        "ra",
        "ms"
      ],
      [
        "Ġent",
        "ire"
      ],
      [
        "Ġe",
        "mer"
      ],
      [
        "Ġre",
        "act"
      ],
      [
        "Ġeas",
        "y"
      ],
      [
        "ill",
        "ed"
      ],
      [
        "et",
        "er"
      ],
      [
        "Ġd",
        "est"
      ],
      [
        "p",
        "ly"
      ],
      [
        "cc",
        "ording"
      ],
      [
        "Ġprodu",
        "ce"
      ],
      [
        "Ġmem",
        "bers"
      ],
      [
        "Ġhist",
        "or"
      ],
      [
        "ed",
        "s"
      ],
      [
        "ĠInd",
        "ia"
      ],
      [
        "ĠM",
        "an"
      ],
      [
        "Ġprovid",
        "es"
      ],
      [
        "s",
        "h"
      ],
      [
        "A",
        "l"
      ],
      [
        "ĠP",
        "r"
      ],
      [
        "iz",
        "ing"
      ],
      [
        "er",
        "ous"
      ],
      [
        "ac",
        "ks"
      ],
      [
        "Ġl",
        "a"
      ],
      [
        "Ġst",
        "ates"
      ],
      [
        "Ġal",
        "most"
      ],
      [
        "ĠB",
        "y"
      ],
      [
        "Ġchem",
        "ical"
      ],
      [
        "ren",
        "g"
      ],
      [
        "Ġs",
        "ite"
      ],
      [
        "Ġret",
        "urn"
      ],
      [
        "it",
        "ud"
      ],
      [
        "Ġst",
        "op"
      ],
      [
        "Ġv",
        "acc"
      ],
      [
        "i",
        "am"
      ],
      [
        "Ġtra",
        "ining"
      ],
      [
        "Ġnecess",
        "ary"
      ],
      [
        "ac",
        "ed"
      ],
      [
        "Ġsp",
        "read"
      ],
      [
        "ron",
        "ic"
      ],
      [
        "Ġpolit",
        "ical"
      ],
      [
        "Ġvir",
        "us"
      ],
      [
        "_",
        "_"
      ],
      [
        "is",
        "ing"
      ],
      [
        "ub",
        "lic"
      ],
      [
        "ĠAmeric",
        "a"
      ],
      [
        "Ġanal",
        "ysis"
      ],
      [
        "Ġt",
        "aking"
      ],
      [
        "Ġsoc",
        "iety"
      ],
      [
        "Ġpro",
        "te"
      ],
      [
        "Ġcaus",
        "es"
      ],
      [
        "Ġche",
        "ck"
      ],
      [
        "2",
        "1"
      ],
      [
        "h",
        "old"
      ],
      [
        "on",
        "se"
      ],
      [
        "ail",
        "y"
      ],
      [
        "C",
        "h"
      ],
      [
        "Ġtemper",
        "ature"
      ],
      [
        "ol",
        "ic"
      ],
      [
        "Ġit",
        "self"
      ],
      [
        "os",
        "es"
      ],
      [
        "Ġhe",
        "at"
      ],
      [
        "Ġthrough",
        "out"
      ],
      [
        "a",
        "i"
      ],
      [
        "Ġreg",
        "ular"
      ],
      [
        "Ġt",
        "alk"
      ],
      [
        "Ġd",
        "oc"
      ],
      [
        "Ġincre",
        "asing"
      ],
      [
        "Ġcol",
        "or"
      ],
      [
        "us",
        "ion"
      ],
      [
        "Ġpat",
        "tern"
      ],
      [
        "Ġindust",
        "ry"
      ],
      [
        "ect",
        "ions"
      ],
      [
        "end",
        "er"
      ],
      [
        "Ġ",
        "vers"
      ],
      [
        "Ġdi",
        "agn"
      ],
      [
        "ĠC",
        "omp"
      ],
      [
        "Ġpop",
        "ular"
      ],
      [
        "Ġa",
        "ction"
      ],
      [
        "ĠG",
        "e"
      ],
      [
        "Ġ",
        "ut"
      ],
      [
        "Ġlong",
        "er"
      ],
      [
        "Ġ1",
        "3"
      ],
      [
        "Ġh",
        "ours"
      ],
      [
        "Ġpub",
        "lished"
      ],
      [
        "Ġar",
        "ch"
      ],
      [
        "Ġ1",
        "00"
      ],
      [
        "Ġv",
        "ide"
      ],
      [
        "Ġcon",
        "duct"
      ],
      [
        "Ġ19",
        "8"
      ],
      [
        "ĠWh",
        "ile"
      ],
      [
        "y",
        "stem"
      ],
      [
        "ch",
        "an"
      ],
      [
        "m",
        "a"
      ],
      [
        "Ġf",
        "ru"
      ],
      [
        "Ġe",
        "at"
      ],
      [
        "Ġlit",
        "er"
      ],
      [
        "u",
        "fact"
      ],
      [
        "ive",
        "ly"
      ],
      [
        "Ġbre",
        "ak"
      ],
      [
        "Ġthough",
        "t"
      ],
      [
        "Ġf",
        "arm"
      ],
      [
        "p",
        "ro"
      ],
      [
        "ore",
        "s"
      ],
      [
        "Ġsub",
        "st"
      ],
      [
        "it",
        "ary"
      ],
      [
        "Ġinter",
        "act"
      ],
      [
        "Ġl",
        "ives"
      ],
      [
        "Ġg",
        "as"
      ],
      [
        "Ġc",
        "ame"
      ],
      [
        "ut",
        "es"
      ],
      [
        "Ġf",
        "ire"
      ],
      [
        "Ġup",
        "on"
      ],
      [
        "y",
        "le"
      ],
      [
        "uc",
        "k"
      ],
      [
        "Ġpr",
        "iv"
      ],
      [
        "Ġl",
        "ink"
      ],
      [
        "ĠS",
        "oc"
      ],
      [
        "Ġcomput",
        "er"
      ],
      [
        "o",
        "on"
      ],
      [
        "ĠM",
        "ay"
      ],
      [
        "an",
        "ced"
      ],
      [
        "Ġe",
        "ver"
      ],
      [
        "Ġb",
        "ar"
      ],
      [
        "ron",
        "t"
      ],
      [
        "Ġc",
        "e"
      ],
      [
        "Ġto",
        "tal"
      ],
      [
        "Ġfood",
        "s"
      ],
      [
        "l",
        "t"
      ],
      [
        "en",
        "ed"
      ],
      [
        "ur",
        "s"
      ],
      [
        "Ġet",
        "c"
      ],
      [
        "Ġreg",
        "ard"
      ],
      [
        "Ġar",
        "g"
      ],
      [
        "ĠCon",
        "t"
      ],
      [
        "Ġshow",
        "s"
      ],
      [
        "m",
        "ing"
      ],
      [
        "g",
        "ar"
      ],
      [
        "Ã",
        "©"
      ],
      [
        "ĠR",
        "ep"
      ],
      [
        "ĠA",
        "ct"
      ],
      [
        "c",
        "ient"
      ],
      [
        "Ġserv",
        "ice"
      ],
      [
        "ĠE",
        "m"
      ],
      [
        "z",
        "e"
      ],
      [
        "l",
        "or"
      ],
      [
        "Ġh",
        "alf"
      ],
      [
        "Ġstruct",
        "ure"
      ],
      [
        "g",
        "o"
      ],
      [
        "Ġp",
        "ort"
      ],
      [
        "Ġtra",
        "vel"
      ],
      [
        "Ġm",
        "or"
      ],
      [
        "Ġcont",
        "act"
      ],
      [
        "h",
        "ib"
      ],
      [
        "n",
        "ces"
      ],
      [
        "er",
        "ve"
      ],
      [
        "ĠC",
        "al"
      ],
      [
        "Ġmean",
        "ing"
      ],
      [
        "Ġter",
        "ms"
      ],
      [
        "Ġmethod",
        "s"
      ],
      [
        "Ġright",
        "s"
      ],
      [
        "ĠG",
        "u"
      ],
      [
        "Ġsu",
        "per"
      ],
      [
        "Ġem",
        "ot"
      ],
      [
        "Ġrel",
        "ig"
      ],
      [
        "Ġmeas",
        "ure"
      ],
      [
        "p",
        "id"
      ],
      [
        "idd",
        "le"
      ],
      [
        "Ġse",
        "par"
      ],
      [
        "le",
        "x"
      ],
      [
        "Ġre",
        "pl"
      ],
      [
        "Ġl",
        "ove"
      ],
      [
        "ist",
        "ics"
      ],
      [
        "ĠN",
        "orth"
      ],
      [
        "Ġl",
        "if"
      ],
      [
        "ib",
        "r"
      ],
      [
        "Ġmat",
        "ter"
      ],
      [
        "Ġenvironment",
        "al"
      ],
      [
        "Ġcaus",
        "ed"
      ],
      [
        "Ġb",
        "ur"
      ],
      [
        "Ġ5",
        "0"
      ],
      [
        "Ġens",
        "ure"
      ],
      [
        "es",
        "e"
      ],
      [
        "Ġth",
        "ing"
      ],
      [
        "o",
        "ber"
      ],
      [
        "ĠC",
        "o"
      ],
      [
        "Ġpol",
        "l"
      ],
      [
        "Ġpr",
        "inc"
      ],
      [
        "Ġbr",
        "ing"
      ],
      [
        "Ġs",
        "ense"
      ],
      [
        "Ġre",
        "view"
      ],
      [
        "e",
        "b"
      ],
      [
        "Ġchall",
        "eng"
      ],
      [
        "Ġst",
        "reng"
      ],
      [
        "og",
        "rap"
      ],
      [
        "ĠA",
        "fter"
      ],
      [
        "ĠEar",
        "th"
      ],
      [
        "ra",
        "d"
      ],
      [
        "Ġpre",
        "vious"
      ],
      [
        "Ġdam",
        "age"
      ],
      [
        "Ġenc",
        "oura"
      ],
      [
        "Ġcon",
        "c"
      ],
      [
        "ab",
        "et"
      ],
      [
        "il",
        "s"
      ],
      [
        "he",
        "t"
      ],
      [
        "ĠAust",
        "ral"
      ],
      [
        "Ġst",
        "e"
      ],
      [
        "ab",
        "or"
      ],
      [
        "en",
        "n"
      ],
      [
        "Ġtar",
        "get"
      ],
      [
        "ĠP",
        "e"
      ],
      [
        "Ġbehav",
        "ior"
      ],
      [
        "row",
        "n"
      ],
      [
        "Ġde",
        "ep"
      ],
      [
        "art",
        "ment"
      ],
      [
        "Ġse",
        "x"
      ],
      [
        "ful",
        "ly"
      ],
      [
        "Ġinclud",
        "es"
      ],
      [
        "Ġcar",
        "bon"
      ],
      [
        "Ġh",
        "arm"
      ],
      [
        "Ġh",
        "ab"
      ],
      [
        "Ġf",
        "ace"
      ],
      [
        "e",
        "xt"
      ],
      [
        "um",
        "e"
      ],
      [
        "E",
        "S"
      ],
      [
        "en",
        "e"
      ],
      [
        "h",
        "ood"
      ],
      [
        "Ġsh",
        "own"
      ],
      [
        "ul",
        "es"
      ],
      [
        "A",
        "S"
      ],
      [
        "Ġcomp",
        "an"
      ],
      [
        "Ġar",
        "r"
      ],
      [
        "Ġk",
        "ids"
      ],
      [
        "Ġs",
        "low"
      ],
      [
        "av",
        "ing"
      ],
      [
        "Ġrem",
        "ov"
      ],
      [
        "Ġident",
        "ify"
      ],
      [
        "as",
        "c"
      ],
      [
        "Ġbe",
        "gan"
      ],
      [
        "Ġreg",
        "ion"
      ],
      [
        "c",
        "hes"
      ],
      [
        "ol",
        "l"
      ],
      [
        "Ġb",
        "al"
      ],
      [
        "in",
        "ter"
      ],
      [
        "Ġto",
        "ok"
      ],
      [
        "Ġsim",
        "ply"
      ],
      [
        "Ġa",
        "verage"
      ],
      [
        "it",
        "ation"
      ],
      [
        "Ġbu",
        "ilt"
      ],
      [
        "Ġs",
        "at"
      ],
      [
        "ric",
        "ult"
      ],
      [
        "Ġdesign",
        "ed"
      ],
      [
        "o",
        "or"
      ],
      [
        "Ġy",
        "et"
      ],
      [
        "Ġelect",
        "ric"
      ],
      [
        "Ġo",
        "x"
      ],
      [
        "ig",
        "ure"
      ],
      [
        "Ġvar",
        "iety"
      ],
      [
        "Ġrec",
        "ent"
      ],
      [
        "A",
        "R"
      ],
      [
        "ell",
        "ing"
      ],
      [
        "ic",
        "les"
      ],
      [
        "Ġb",
        "acter"
      ],
      [
        "Ġget",
        "ting"
      ],
      [
        "ver",
        "se"
      ],
      [
        "f",
        "ect"
      ],
      [
        "em",
        "pt"
      ],
      [
        "anc",
        "ial"
      ],
      [
        "a",
        "ff"
      ],
      [
        "ict",
        "ion"
      ],
      [
        "Ġresp",
        "onse"
      ],
      [
        "Ġwe",
        "bs"
      ],
      [
        "Ġb",
        "ill"
      ],
      [
        "ap",
        "an"
      ],
      [
        "ĠY",
        "ork"
      ],
      [
        "Ġvar",
        "i"
      ],
      [
        "Ġde",
        "b"
      ],
      [
        "al",
        "ing"
      ],
      [
        "ĠS",
        "u"
      ],
      [
        "r",
        "ast"
      ],
      [
        "ers",
        "hip"
      ],
      [
        "Ġman",
        "ufact"
      ],
      [
        "Ġhe",
        "av"
      ],
      [
        "Ġc",
        "op"
      ],
      [
        "Ġc",
        "ust"
      ],
      [
        "u",
        "el"
      ],
      [
        "Ġout",
        "side"
      ],
      [
        "Ġstand",
        "ard"
      ],
      [
        "ĠBrit",
        "ish"
      ],
      [
        "Ġdo",
        "ing"
      ],
      [
        "u",
        "ge"
      ],
      [
        "ĠP",
        "er"
      ],
      [
        "Ġsur",
        "v"
      ],
      [
        "Ġw",
        "ild"
      ],
      [
        "Ġpos",
        "ition"
      ],
      [
        "Ġschool",
        "s"
      ],
      [
        "ĠY",
        "our"
      ],
      [
        "ri",
        "or"
      ],
      [
        "Ġmus",
        "ic"
      ],
      [
        "ĠD",
        "ep"
      ],
      [
        "ri",
        "pt"
      ],
      [
        "Ġiss",
        "ue"
      ],
      [
        "ist",
        "ance"
      ],
      [
        "rop",
        "ri"
      ],
      [
        "Ġcomp",
        "on"
      ],
      [
        "ac",
        "hes"
      ],
      [
        "in",
        "ary"
      ],
      [
        "ĠCh",
        "ina"
      ],
      [
        "Ġl",
        "ed"
      ],
      [
        "Ġtru",
        "e"
      ],
      [
        "Ġresp",
        "ect"
      ],
      [
        "Ġm",
        "ental"
      ],
      [
        "ĠâĢ",
        "¦"
      ],
      [
        "Ġaw",
        "are"
      ],
      [
        "ĠCan",
        "ad"
      ],
      [
        "Ġ",
        "X"
      ],
      [
        "Ġ20",
        "20"
      ],
      [
        "Ġn",
        "ight"
      ],
      [
        "Ġsom",
        "etimes"
      ],
      [
        "ul",
        "ations"
      ],
      [
        "Ġ1",
        "1"
      ],
      [
        "Ġl",
        "ack"
      ],
      [
        "ow",
        "s"
      ],
      [
        "im",
        "ent"
      ],
      [
        "Ġsome",
        "one"
      ],
      [
        "ĠP",
        "ar"
      ],
      [
        "Ġdise",
        "ases"
      ],
      [
        "ĠH",
        "is"
      ],
      [
        "Ġ19",
        "7"
      ],
      [
        "ol",
        "es"
      ],
      [
        "Ġs",
        "ix"
      ],
      [
        "Ġus",
        "es"
      ],
      [
        "Ġdoes",
        "n"
      ],
      [
        "Ġsh",
        "are"
      ],
      [
        "is",
        "es"
      ],
      [
        "se",
        "t"
      ],
      [
        "Ġimp",
        "lement"
      ],
      [
        "ĠRes",
        "earch"
      ],
      [
        "c",
        "hed"
      ],
      [
        "Ġmove",
        "ment"
      ],
      [
        "Ġd",
        "aily"
      ],
      [
        "ir",
        "m"
      ],
      [
        "op",
        "h"
      ],
      [
        "Ġrem",
        "ain"
      ],
      [
        "Ġ2",
        "5"
      ],
      [
        "Ġpat",
        "ient"
      ],
      [
        "Ġnet",
        "work"
      ],
      [
        "Ġsaf",
        "ety"
      ],
      [
        "Ġv",
        "it"
      ],
      [
        "ro",
        "om"
      ],
      [
        "Ġgrow",
        "ing"
      ],
      [
        "er",
        "ation"
      ],
      [
        "Ġgre",
        "ater"
      ],
      [
        "Ġcomp",
        "et"
      ],
      [
        "Ġf",
        "em"
      ],
      [
        "Ġcl",
        "aim"
      ],
      [
        "Ġprovid",
        "ed"
      ],
      [
        "Ġg",
        "e"
      ],
      [
        "Ġsu",
        "st"
      ],
      [
        "Ġcult",
        "ure"
      ],
      [
        "Ġatt",
        "ention"
      ],
      [
        "Ġser",
        "ious"
      ],
      [
        "Ġinvol",
        "ved"
      ],
      [
        "d",
        "om"
      ],
      [
        "Ġext",
        "reme"
      ],
      [
        "Ġreport",
        "ed"
      ],
      [
        "os",
        "ition"
      ],
      [
        "Ġdevelop",
        "ing"
      ],
      [
        "k",
        "now"
      ],
      [
        "Ġve",
        "get"
      ],
      [
        "an",
        "a"
      ],
      [
        "Ġvis",
        "it"
      ],
      [
        "on",
        "y"
      ],
      [
        "ad",
        "es"
      ],
      [
        "land",
        "s"
      ],
      [
        "Ġhy",
        "d"
      ],
      [
        "6",
        "0"
      ],
      [
        "min",
        "ist"
      ],
      [
        "Ġparticular",
        "ly"
      ],
      [
        "Ġapp",
        "l"
      ],
      [
        "Ġbelie",
        "ve"
      ],
      [
        "Ġint",
        "eg"
      ],
      [
        "es",
        "tern"
      ],
      [
        "os",
        "ing"
      ],
      [
        "Ġth",
        "reat"
      ],
      [
        "os",
        "ure"
      ],
      [
        "Ġev",
        "ents"
      ],
      [
        "ĠJoh",
        "n"
      ],
      [
        "Ġex",
        "c"
      ],
      [
        "Ġp",
        "sych"
      ],
      [
        "Ġpre",
        "p"
      ],
      [
        "Ġv",
        "iol"
      ],
      [
        "Ġrel",
        "ative"
      ],
      [
        "Ġs",
        "ources"
      ],
      [
        "Ġperform",
        "ance"
      ],
      [
        "w",
        "h"
      ],
      [
        "Ġ",
        "/"
      ],
      [
        "Ġp",
        "le"
      ],
      [
        "Ġw",
        "ood"
      ],
      [
        "Ġorig",
        "inal"
      ],
      [
        "Ġnorm",
        "al"
      ],
      [
        "ĠH",
        "ist"
      ],
      [
        "Ġg",
        "ard"
      ],
      [
        "ĠSt",
        "ate"
      ],
      [
        "m",
        "b"
      ],
      [
        "âĢĿ",
        "."
      ],
      [
        "Ġeas",
        "ily"
      ],
      [
        "Ġac",
        "cept"
      ],
      [
        "i",
        "ot"
      ],
      [
        "Ġpo",
        "or"
      ],
      [
        "eng",
        "th"
      ],
      [
        "Ġlook",
        "ing"
      ],
      [
        "imate",
        "ly"
      ],
      [
        "ar",
        "ily"
      ],
      [
        "b",
        "an"
      ],
      [
        "Ġfor",
        "ms"
      ],
      [
        "Ġ",
        "ir"
      ],
      [
        "ĠS",
        "chool"
      ],
      [
        "Ġdec",
        "re"
      ],
      [
        "Ġneg",
        "ative"
      ],
      [
        "Ġme",
        "chan"
      ],
      [
        "Ġbas",
        "ic"
      ],
      [
        "Ġre",
        "v"
      ],
      [
        "ter",
        "m"
      ],
      [
        "Ġthere",
        "fore"
      ],
      [
        "Ġteac",
        "hers"
      ],
      [
        "Ġcontin",
        "ue"
      ],
      [
        "Ġpre",
        "c"
      ],
      [
        "Ġb",
        "ab"
      ],
      [
        "y",
        "ing"
      ],
      [
        "st",
        "er"
      ],
      [
        "Ġcor",
        "rect"
      ],
      [
        "c",
        "o"
      ],
      [
        "ct",
        "ions"
      ],
      [
        "j",
        "oy"
      ],
      [
        "Ġ",
        "Â"
      ],
      [
        "Ġt",
        "akes"
      ],
      [
        "Ġref",
        "er"
      ],
      [
        "Ġanim",
        "al"
      ],
      [
        "m",
[...]
